#include "model_data.h"

const int IMAGE_DATA_DIMS[] = {1, 3, 32, 32};
const int NODE2OUTPUTS[NODE_NUM][1] = 
{{1}, {2}, {3}, {4}, {5}, {6}, {8}, {7}, {9}, {10}, {11}, {13}, {12}, {14}, {15}, {16}, {17}, {18}, {19}, {20}};
const int NODE2INPUTS[NODE_NUM][NODE2INPUTS_LEN] = 
{{0, -1}, {1, -1}, {2, -1}, {1, 3}, {4, -1}, {5, -1}, {5, -1}, {6, -1}, {8, 7}, {9, -1}, {10, -1}, {10, -1}, {11, -1}, {13, 12}, {14, -1}, {15, -1}, {16, -1}, {17, -1}, {18, -1}, {19, -1}};
const int INPUT2NODES[INPUT_NUM][INPUT2NODES_LEN] = 
{{0, -1}, {1, 3}, {2, -1}, {3, -1}, {4, -1}, {5, 6}, {7, -1}, {8, -1}, {8, -1}, {9, -1}, {10, 11}, {12, -1}, {13, -1}, {13, -1}, {14, -1}, {15, -1}, {16, -1}, {17, -1}, {18, -1}, {19, -1}};
const int NODE_TYPE[] = 
{0, 0, 0, 4, 2, 0, 0, 0, 4, 2, 0, 0, 0, 4, 2, 8, 5, 6, 10, 9};
const int CONFIG[] = 
{16, 3, 3, 3, 16, 1, 1, 1, 1, 1, 1, 2, 16, 16, 3, 3, 16, 1, 1, 1, 1, 1, 1, 2, 16, 16, 3, 3, 16, 1, 1, 1, 1, 1, 1, -1, 32, 16, 3, 3, 32, 2, 2, 0, 0, 1, 1, 2, 32, 16, 1, 1, 32, 2, 2, 0, 0, 0, 0, -1, 32, 32, 3, 3, 32, 1, 1, 1, 1, 1, 1, -1, 64, 32, 3, 3, 64, 2, 2, 0, 0, 1, 1, 2, 64, 32, 1, 1, 64, 2, 2, 0, 0, 0, 0, -1, 64, 64, 3, 3, 64, 1, 1, 1, 1, 1, 1, -1, 8, 8, 8, 8, 0, 2, 3, 1, -1, 64, 10, 64, 10, 0, 1, -1, -1};
const int QUANTIZATION_FACTOR[] = 
{1073741824, 30, 1570544157, 18, 1468180947, 43, 2037514133, 37, 1490118874, 24, 1082332987, 23, 1535139316, 44, 1266481374, 38, 1771662033, 25, 2059018366, 23, 1357433310, 44, 2099007047, 39, 1660333247, 25, 1229837227, 22, 1212513843, 44, 1946298462, 39, 1660333247, 25, 1791006322, 23, 1665203126, 44, 1616509687, 39, 1723544908, 25, 1390929496, 23, 2065531774, 44, 2005132028, 39, 2084687486, 26, 1419878535, 21, 1672890241, 45, 1879520765, 39, 2084687486, 26, 1538494070, 23, 1543912967, 43, 0, 0, 1206367282, 24, 1159116047, 24, 1770610912, 43, 0, 0, 1080973646, 24, 1098186858, 25, 2085634761, 42, 0, 0};
const int CONV_WEIGHT_POS[] = 
{0, 432, 432, 2304, 2736, 2304, 5040, 4608, 9648, 512, 10160, 9216, 19376, 18432, 37808, 2048, 39856, 36864};
const int CONV_BIAS_POS[] = 
{0, 16, 16, 16, 32, 16, 48, 32, 80, 32, 112, 32, 144, 64, 208, 64, 272, 64};
const int CONV_WEIGHT_SHAPE_POS[] = 
{0, 4, 12, 4, 24, 4, 36, 4, 48, 4, 60, 4, 72, 4, 84, 4, 96, 4};
const int CONV_BIAS_SHAPE_POS[] = 
{4, 1, 16, 1, 28, 1, 40, 1, 52, 1, 64, 1, 76, 1, 88, 1, 100, 1};
const int CONV_QUANTIZATION_FACTOR_POS[] = 
{0, 8, 8, 8, 16, 8, 24, 8, 32, 8, 40, 8, 48, 8, 56, 8, 64, 8};
const int CONV_STRIDE_POS[] = 
{5, 2, 17, 2, 29, 2, 41, 2, 53, 2, 65, 2, 77, 2, 89, 2, 101, 2};
const int CONV_PAD_POS[] = 
{7, 4, 19, 4, 31, 4, 43, 4, 55, 4, 67, 4, 79, 4, 91, 4, 103, 4};
const int CONV_ACTIVATION_FUNC_POS[] = 
{11, 1, 23, 1, 35, 1, 47, 1, 59, 1, 71, 1, 83, 1, 95, 1, 107, 1};
const int MATMUL_WEIGHT_POS[] = 
{76720, 640};
const int MATMUL_BIAS_POS[] = 
{336, 10};
const int MATMUL_WEIGHT_SHAPE_POS[] = 
{118, 2};
const int MATMUL_BIAS_SHAPE_POS[] = 
{120, 1};
const int MATMUL_QUANTIZATION_FACTOR_POS[] = 
{72, 8};
const int MATMUL_TRANSA_POS[] = 
{121, 1};
const int MATMUL_TRANSB_POS[] = 
{122, 1};
const int MATMUL_ACTIVATION_FUNC_POS[] = 
{123, 1};
const int TRANSPOSE_PERM_POS[] = 
{112, 4};
const int RESHAPE_SHAPE_POS[] = 
{116, 2};
const int SOFTMAX_AXIS_POS[] = 
{124, 1};
const int AVERAGE_POOL_KERNEL_SHAPE_POS[] = 
{108, 2};
const int AVERAGE_POOL_STRIDES_POS[] = 
{110, 2};
const int AVERAGE_POOLING_DIVISOR[] = {1073741824, 36};
const unsigned char IMAGE_DATA[] = {

};

const int WEIGHT_INT32[] = {
0xe3e, 0x78a, 0x1046, 0x754, 0xbc1, 0x421, 0xc1c, 0xdf0, 0x448, 0x71f, 0x367, 0x10d9, 0x1162, -0x409, -0x15ff, 0x21d3, 0xa698, -0x30cd, 0x775d, 0x3acf, 0xa5e5, 0x167c, -0x1f5c, 0x1293, 0x4f72, 0x92, -0xcbfb, -0x32b1, 0x1421, 0x617, 0x7d7, 0x335e, 0x2d3a, 0xcc8, -0xc2d, -0x40d8, 0x4e9, 0x2d2, -0x1359, -0x2ee1, -0x98, 0x3a69, 0x394c, -0xc7b, -0xa46, 0x76c, 0x1e46, -0x3683, 0x4c1a, 0xf6b, 0x5f78, -0x5360, 0x7d72, 0x57f5, -0x33e6, 0x7012, 0x48a5, 0x2c88, -0x1122, 0x6247, 0x55f, -0x2706, 0x6ac2, 0x195a, 0x22c4, -0x192a, -0x5c6a, 0x4a8, 0x1554, -0x1db0, 0x144d, 0x32af, 0x18ac, 0x5e1, 0x9f72, 0xc4e, 0x2895, 0x4ab0, -0x838, 0x346b, -0x82, 0x17, 0x6c4, -0x504, -0x359, -0x602, -0xeb, 0x5c7, 0xcd3, -0x44c, -0x43b, -0x295, -0x86c, -0x177, 0x297, 0x326, 0xe6, -0x389, 0x8ba, 0x67d, -0xaf6,
0x413, 0x5f2, -0x624, 0xbd, 0x242, -0xa20, -0x61, 0x82e, -0x9ef, 0x3e7, 0xa78, 0x32f6, -0x10c3, 0x1992, -0x18be, 0x1561, -0xd6f, 0x7a1c, -0x172, 0x78f4, -0x3eba, 0xf0f, 0x3c6f, 0x307c, 0x3fe7, -0x3944, -0x2254, 0x6dfc, 0x1898, 0x972, 0x51ae, -0x504c, 0x2f7d, 0x3044, 0x551, -0x5f0, 0x24d2, -0x27b2, -0x22e5, 0x67c3, -0x9db, 0x38f4, 0x2056, 0x329a, 0x66e9, 0x7e06, -0x5307, -0xce0, 0x1c49, 0x54a9, -0x8ba2, 0x1943, 0x1df7, 0x8af7, -0xf2a, 0x2e43, 0x1400, 0x1e13, 0x6de1, -0x170, -0x2c83, 0x10ee, 0x4a87, 0x1, 0x57da, -0x319d, -0x8628, 0x7808, 0x4aea, 0x2241, 0x4ded, -0x3266, -0x5706, -0x260b, -0x9731, -0x84f7, -0x1af, 0x39bd, -0x4dd2, 0x7069, -0xdf38, -0x1641, 0xa850, 0x19e4, 0x7c6a, 0x8b19, -0x1e34, -0x11d5, -0x1c91, 0xa293, 0x8e4, -0x891c, -0xc18, 0x1c89, 0x2bd3, -0x4915, -0x1edc, -0x48ed, 0x5a31, -0x6c2a,
0x49b5, -0x3f94, 0x3ab7, -0x1db3, -0xa04e, 0x2da0, 0x653b, -0x82a, 0x113, -0x6b4, -0x519, -0x268, -0xd17, -0x582, -0x21f, -0x398, -0x4ad, -0xec, 0x42, -0x761, -0x38e, -0x25, -0xb8, -0x13c, -0x63b, -0x151, 0x2a5, -0x2cc, -0x3ba, 0xd0, -0x342, -0x193, -0x53a, -0x95, -0x10d5, -0x516, -0x36e, -0x617, -0x254, -0x4e2, 0x2f2, -0x3d, -0xe9b, -0x377, -0x41c, -0x452, 0x160, -0x2c8, -0x69b, -0x91, -0x83c, 0x226, -0x308, -0x288, -0x586, 0x6c, -0x444, -0x641, -0x648, 0x2b, -0xbe7, -0xa3f, -0x9e0, 0x64, -0x1a3, -0x118, -0x211, -0x5bd, 0x156, -0x4a4, -0xb8, 0xe7f, -0xa3, -0x135c, 0x4e0, 0x36df, -0x1177, 0x42d, -0x1837, 0x427d, 0x16ca, 0x15c7, 0x3267, 0x47b, 0x318f, 0x2a75, -0x11ec, 0x7d6, 0x1ab9, 0x1f1e, -0xb1c, 0x2b1, 0x12a6, 0x2fda, 0x9c, -0x14ed, 0xb61, 0x3042, 0x1776, 0x3333,
-0x993, 0x2c5b, 0x5cf6, 0x6b8b, 0x239d, -0x118a, -0x1285, 0x1ba0, 0x1d0e, -0x17d, 0x3d8e, -0x597, 0x3a2f, 0x464b, -0xe06, 0x27e9, -0x3b8, 0xf19, 0x48b, 0x6c7, -0x153c, 0x1d06, 0x1921, 0x37bb, 0x122d, 0x4682, 0x459f, 0x173b, 0x3126, 0x2e71, 0x1d43, -0x155e, 0x2122, -0x90b, 0x3529, -0xbc, -0x149, 0x25, 0x95, 0x62, -0x117, 0x168, -0xe5, -0xe, 0x17a
};

const char WEIGHT_INT8[] = {
0xe, 0xb, 0x28, -0x2f, -0x4, -0xb, -0x2c, 0x14, -0x2f, 0x12, -0x9, 0x9, -0x5, 0x15, -0x16, 0x0, 0x1f, -0xd, -0x19, -0x20, -0x36, 0x28, -0x7, -0xa, 0x4, 0x44, 0x17, -0x2, 0xd, 0x7, -0x4, -0xf, 0x15, -0xc, 0x8, 0x10, 0x4, -0xb, -0xf, -0x2, -0x14, -0x5, 0x6, 0x5, -0xe, -0x10, -0x2, -0x3, -0x5, -0x10, 0x10, 0x7, -0x4, 0xd, -0x19, 0x1a, -0x23, 0x14, -0x1d, -0x15, 0x35, 0xa, 0x3, -0x21, 0x1c, 0x13, -0x17, -0x1f, -0x1a, 0x2, 0x17, 0x1c, 0xf, 0xe, 0x2, -0x5, -0x9, -0x25, -0x3, -0x9, 0x27, -0x25, -0x27, 0x2, 0x1, -0x9, 0x5, 0x19, -0x16, -0x12, 0x2, 0x21, 0x19, 0x13, 0x47, 0xd, -0x3, 0x4, 0x10, 0x4, -0xc,
-0x1b, 0x8, 0xb, -0x17, -0x17, -0x15, -0x5, -0x39, -0x26, 0x12, -0x2f, -0x2a, 0x6, 0x2f, 0x2b, 0x23, 0x17, 0x11, 0x1, 0x6, -0x4, 0x11, 0xe, -0x20, -0x26, 0x26, -0x11, -0x7, 0x2a, -0xe, 0xc, -0x11, -0x13, -0xb, 0x18, -0x16, -0x5, -0x18, -0x10, -0x5, -0x4, 0x1a, 0x1b, 0x7, -0x29, -0x12, -0x6, 0x4, 0x20, -0x1, -0xb, 0x20, 0x5, -0x1a, -0x16, -0x7, 0x3, 0xc, 0x9, 0xd, 0xb, 0x1c, -0xb, -0x13, -0x18, 0x0, 0x2d, 0xa, -0x1a, -0xa, -0x2b, -0xb, 0xb, -0x1b, 0x3, 0x39, 0x2a, -0x1a, 0x25, 0x1d, 0x2c, 0xb, 0x6, -0x2e, -0x8, 0x1d, -0x38, -0x26, 0x49, 0x50, 0x17, 0x12, -0xf, -0x23, -0x44, -0x59, 0x13, -0x42, -0x2c, 0x1c,
0x37, 0x10, 0x1, 0x31, -0x54, 0x26, -0x3b, -0x32, 0x5, 0xa, 0x1b, -0x20, 0x28, -0x1, 0x40, 0xd, 0x20, 0x1e, -0x3, -0x22, -0x23, 0x11, -0x3, -0x2, -0x1d, 0x1c, -0x4, -0x6, 0xb, -0x25, -0x12, -0x10, 0x5, 0x6, 0x28, -0x7, 0x8, 0x20, -0x6, 0x6, -0x12, -0x6, 0x18, -0x4, -0xf, 0x28, -0x12, -0x5, 0x3, 0x6, -0x9, -0x8, -0x6, -0xc, 0xf, -0x10, -0x7, -0x2, -0xa, 0xb, 0xa, -0x9, 0x1, 0x1e, -0xf, 0x3, 0x5, 0xe, -0x15, 0xf, 0xe, -0x2, 0xb, 0x4, 0x8, -0x5, -0x2, 0x4, -0x8, 0x2, 0xb, -0x5, -0x12, 0xb, -0x8, -0x13, -0x7, 0x4, 0x5, -0x2, -0x1, -0x7, 0x1, -0x3, -0xd, -0xa, 0x1, 0x1b, -0xf, -0x3,
-0xf, 0x25, -0x14, -0xc, 0xc, -0x8, -0x1e, -0x1b, 0x0, 0x9, 0x18, -0x1f, -0x19, 0xc, 0x19, 0x12, -0x10, 0x3, 0x14, -0xc, -0x5, -0xa, -0x10, -0x2d, -0x1c, 0xb, 0x14, -0xa, 0x1, 0x28, 0x1f, 0xb, -0x1e, -0x1f, 0x3c, -0x1d, 0x15, 0x11, -0x21, -0x1a, -0xe, -0x3, 0x24, 0x19, 0x17, -0x17, -0x2, -0x1b, 0xe, -0x4, -0xa, -0xa, -0x8, -0x2, 0x1, -0x5, 0x1, -0x2, 0x3, -0x3, 0x4, -0x1, 0x0, 0x8, 0x3, 0x2, 0x1, 0x3, 0x4, 0x8, -0x3, -0x2, 0xb, 0x4, -0x3, 0x3, 0x6, 0x6, -0x2, 0x9, -0x6, 0x7, 0x8, -0x7, 0x5, 0x10, -0x4, -0x8, -0x1, -0x4, 0x9, 0x7, 0x5, 0x7, 0x2, 0x0, 0x4, 0x9, -0x2, 0x7,
-0x4, -0x4, -0x1, -0x14, 0x60, -0x4, 0xa, -0x1, 0xe, -0x67, 0x11, 0x6, -0x44, -0x24, -0x7a, -0x1c, 0x1d, 0x56, 0x9, -0x7, 0x5f, 0x4, 0x1e, -0x34, 0x7f, -0x47, -0x10, 0xa, -0x39, -0x22, 0x3b, 0xa, 0x4, -0x24, -0x11, -0x15, -0x11, 0x9, 0x19, 0x39, 0x5, -0xd, 0xf, -0x7, -0x32, 0x21, 0xf, 0x1, 0x1f, 0x2, -0x41, -0x3, 0x1a, -0xa, 0x3, -0xa, 0x17, 0x7, -0x3, 0x1d, -0x19, 0x2d, 0x25, -0x52, -0xd, -0x4, -0x35, -0xb, -0x2c, 0xd, 0xa, -0x16, 0x11, 0x3, -0x5, 0x9, 0x11, 0x5, 0x4, -0xb, 0xd, 0x12, -0x3f, -0x17, -0x4, 0x6, 0xd, 0x20, 0x11, -0x42, -0xb, -0x6, -0x17, -0x7, 0x2a, -0x38, 0x1b, -0xc, 0x7, -0x17,
-0x1a, -0x16, -0x3, -0xa, -0xd, 0x15, -0x2e, -0x9, -0x19, 0xf, -0x15, -0x7, -0x2, -0xc, -0x8, 0xc, 0x18, 0x14, -0x8, 0x4, -0x1e, 0x1, -0x1c, 0x1, 0x0, -0x36, -0x16, -0x4, -0x6, 0x16, 0x5, -0x39, -0xc, 0xa, -0x1e, -0x11, 0x9, -0x1, 0x5, 0x2, 0xe, -0x29, -0xb, -0x36, -0x5, 0xf, -0x3b, 0x2, 0xf, -0x11, 0x1, 0x1f, -0x5, -0x10, -0x2, -0x7, -0x17, -0x1e, -0xe, 0xf, -0x27, -0xd, 0xb, -0xd, 0x6, 0x12, -0x1, 0x8, -0x13, -0x15, 0x2a, 0x7, 0x2, -0x54, -0xe, 0x3, 0x6, 0xa, 0xa, -0x4, -0x8, 0x5, 0x3, -0x12, -0x5, -0xf, 0x0, -0xa, -0x13, -0xe, 0x5, 0x5, -0x8, -0x3, 0x16, 0x10, -0x4, 0x1d, 0x17, -0x8,
-0x8, -0x7, 0x3, 0x9, 0x12, -0x11, -0x6, 0x5, 0xa, -0x1, -0xb, 0x5, 0x14, 0xe, -0xa, 0xa, 0x7, -0x10, 0x5, 0x0, 0x11, 0x10, 0x17, -0x16, -0x23, 0x1, 0x3, -0xb, 0x2, 0x7, -0x3, 0x5, -0x5, -0xf, 0x0, 0x1, -0x11, 0x7, 0x7, -0x1f, -0x13, 0x8, -0x19, -0x22, 0xb, 0xc, -0xa, -0x13, -0x4, 0x9, -0x9, -0x11, -0xe, 0xa, -0x1, -0xf, 0x5, 0x1d, 0x15, -0x4, 0x17, 0x14, -0xd, 0x13, -0x3, 0x1, 0x4, -0x4, 0xc, 0x12, 0x9, 0x7, 0xc, 0x8, -0x4, 0x15, 0x1e, -0xa, -0x7, -0x4, -0x8, -0x2, -0x9, 0x13, 0x6, 0x0, -0xb, 0x1, 0x3, -0x9, -0x9, 0x16, 0x0, 0x5, -0x8, -0x7, 0x3, -0x4, -0x10, -0x7,
-0xb, 0xa, 0x5, -0x4, 0x15, 0xa, -0x6, 0xb, 0x2, -0xa, 0x10, 0x22, 0x1e, -0x6, -0xc, 0x4, -0x2, 0x3, 0x14, -0x10, -0x2, -0x8, -0x5, -0x5, 0x4, 0x9, -0x16, -0x2, 0x21, 0x25, -0x10, 0x10, 0x19, -0x17, -0x6, 0x15, -0xf, -0x6, -0x13, -0xd, -0x3, -0x10, -0x4, -0x7, -0x10, -0x17, 0x32, 0x6, -0xf, 0x24, -0x8, -0x37, 0x4, -0x9, -0x20, -0x3, 0xc, 0x5, -0xb, 0x2, -0x9, -0x5, 0x4, -0xb, 0x12, -0x8, 0xe, 0x1a, 0x9, 0x7, 0x4, -0x11, 0x8, 0x28, -0x2e, -0x2b, 0x6, -0x3b, -0x1, -0x14, -0x15, 0x6, 0x11, -0x24, 0x6, 0x4, -0xd, 0x26, -0x1e, 0x1d, -0x5, 0xe, 0xa, 0x1, -0x22, -0x6, -0x9, -0x27, -0x4, 0x4,
-0x17, -0xf, -0x4, -0x18, -0x35, 0x22, 0xa, -0x1f, 0x9, -0xe, 0xa, -0x1d, 0x9, 0x20, 0x1a, -0x6, 0xd, 0x1b, 0x8, 0x2, 0x12, 0xc, 0x6, -0x9, 0x2c, 0x9, -0x7, -0x8, 0x11, -0x5, -0x18, -0x15, -0xb, -0x1c, 0x5, 0x7, 0x10, 0x1d, 0x2, 0x1d, 0x31, 0x10, -0x3, 0xe, -0x5, 0x27, 0x1e, 0x2b, 0x5, 0xa, 0x1f, -0x16, -0x8, 0x7, 0xe, 0x5, -0x8, 0x2, 0x3b, -0x10, -0xd, -0x18, 0x8, 0x15, -0x28, -0x14, 0x11, -0x17, -0xe, 0x11, -0x3, 0x1, 0x1, -0x12, -0xe, 0x2, -0x13, 0x9, 0x11, 0x3, 0xf, -0x3a, -0x3d, -0xc, 0x7, 0x1a, 0x16, 0xf, -0xc, -0x14, -0x28, 0x6, 0x2b, -0xb, -0xf, 0x3, -0x10, -0x5, 0x2c, 0xb,
0x5, 0xa, 0x7, -0xb, 0x19, -0xe, -0xe, 0x12, -0x38, -0x28, -0x1d, -0x24, -0x1c, 0x23, -0xd, 0x6, 0x1a, -0x2a, -0x1c, -0x1, -0x17, -0xf, 0x2a, 0xe, 0x6, 0x2, -0x14, -0x2c, 0x2b, 0x17, -0xa, -0x18, -0x8, 0x0, 0xc, -0x23, 0x18, 0x23, 0x1, 0x28, 0x2, -0x2, -0x15, -0xc, -0x5, 0x8, 0x8, 0x3, 0x22, 0x15, -0x5, -0xd, 0x8, 0x7, 0x1, 0x4, 0x1, 0x9, 0x17, 0x8, 0x3, 0x0, -0x4, 0x14, 0x11, 0x1, 0x10, 0x1a, -0xd, 0x9, -0x4, 0x8, 0x2, 0xb, 0x11, -0x15, -0x27, -0x14, -0x27, 0x9, 0xc, 0xb, 0x1a, 0xf, 0x8, 0xf, -0xf, -0x9, -0x2, 0x16, 0x16, 0x6, -0x1, 0x1, -0xe, -0x2, -0x2, -0xd, -0x2, -0x26,
0x8, 0x9, 0xb, 0xa, -0x6, 0x13, 0xf, -0x1e, 0x1, 0x19, -0x8, -0x15, 0x3, -0x8, 0x7, -0xd, 0xc, 0x2, -0x32, 0x12, 0x8, -0x15, 0x1f, 0x1f, 0x1, -0x33, 0x19, 0x18, -0x21, -0x6, 0x2d, 0x4, 0x6, -0x15, -0x3e, -0x28, 0x35, -0x1, -0x38, -0x9, 0x37, -0x12, -0x1d, 0x18, 0x5, 0x0, 0x2c, -0xc, 0x5, 0x1b, -0x40, -0x23, -0x10, 0x10, 0xe, -0x17, 0x19, 0x14, -0x1a, 0x7, -0x8, -0x3e, -0x1e, -0x14, -0x2, -0x16, 0x8, -0x12, -0x3, 0x25, 0x9, -0x3d, -0x2e, 0xc, 0x14, -0x14, -0x21, 0x14, -0x4, -0x13, 0x8, 0x2a, 0x9, -0x15, 0xc, 0x1b, -0xb, -0x1d, -0x18, 0x1, -0x44, -0x2d, 0x42, -0x11, -0x2e, 0x17, 0x9, -0x12, 0x0, 0x4,
-0xc, 0x0, 0x3, -0x14, 0xe, 0x11, -0x1d, 0x4, -0x1a, 0x8, 0x13, -0xe, -0x14, 0x1f, -0xb, -0x1, 0x7, 0x8, -0x2d, 0x12, 0x2b, -0x24, -0x3b, -0xe, -0x26, -0x31, -0x1c, -0xa, -0x29, -0x13, 0x9, -0xd, -0xf, 0x1a, 0xc, 0x11, 0xd, 0x3, 0x2, -0x12, -0xb, -0x6, -0x13, -0x30, -0xc, -0xe, -0x19, -0x1b, -0x5, 0x2f, 0x10, -0x3d, 0x22, 0x28, -0x12, -0x16, -0x5, -0x1b, -0x17, -0xb, -0xc, 0x13, -0x18, -0x21, -0x11, -0x38, -0x8, 0x8, -0x14, 0x18, -0x7, 0x5, -0xc, -0x15, 0xe, -0x8, 0xe, -0x4, -0x15, 0x1a, 0x18, -0x50, 0x0, 0x27, -0x28, -0x20, -0x8, 0x3, -0x2b, -0x1, 0x6, 0x2, 0xa, -0x10, 0x11, 0x9, 0x13, -0x1f, 0xb, -0x10,
-0xa, -0x15, -0xb, 0x15, 0x1b, 0x2b, -0x35, -0x7, 0x5e, 0x2a, 0x1, -0xe, -0x14, 0x16, 0xe, -0x40, 0x10, 0x11, -0x1b, 0x2, 0x0, -0x1b, -0x16, -0x10, -0x7, -0x11, -0x41, 0x7, 0xc, -0x27, 0x9, 0xe, -0x12, 0x14, -0x22, -0xa, -0x24, -0x14, 0x17, -0x1, -0x2d, -0x15, 0xc, -0x8, -0x5, -0x4, 0x8, 0x6, -0x4, 0xc, 0x21, -0x5, -0x27, 0x1, 0xa, 0x6, 0x19, 0x1f, 0x37, 0x13, -0xb, -0x15, -0x5, -0x1d, 0x21, -0x5, -0x24, 0x2f, -0x9, -0x5, -0x5, -0x12, -0x19, -0x5, -0x4, -0xd, 0x2, 0x17, -0x13, -0x1, 0x1a, -0x20, -0xb, 0x2c, -0x1, 0xe, 0xd, 0x25, -0x11, -0x16, 0x29, 0xf, 0x30, -0x3a, 0x18, 0x3e, 0x2b, 0x2e, -0xe, -0x24,
0x1e, -0x10, -0x28, -0xa, 0x26, 0xf, 0xe, 0x7, -0x2b, -0x21, -0x4, -0x28, -0x20, 0xb, -0x6, -0x2c, 0x20, -0x5, -0x2f, 0x1e, 0x2, -0x1d, 0x12, 0x19, -0x18, 0x13, 0x18, -0x1b, -0x7, -0x5, -0x21, -0x12, 0x0, -0x4, -0x18, -0x5, -0x6, -0x4, 0x2d, 0x27, 0x1e, 0x4, 0x1a, -0x4, -0x14, -0x5, 0x5, 0xe, -0x9, 0x30, 0x32, 0x6, 0x9, 0x4, 0x2, -0xa, 0x6, -0x4, -0x18, -0xf, 0x3, 0x1f, 0x29, 0x17, 0x7, -0x4, -0x15, -0x19, 0x4, -0x5, 0x20, 0x10, -0x14, 0xd, 0x13, 0xb, 0x21, 0x17, 0x7, 0x11, -0x10, -0xb, 0x1, -0x34, -0x18, -0x8, -0x8, -0x4, -0x15, -0x2a, -0x2e, -0x1a, -0x1e, -0x2d, -0x9, 0x4, -0xc, -0xc, -0xa, -0x11,
0x13, 0x1d, 0x14, 0x5, -0x2, 0x0, -0xa, -0x2e, -0x1c, 0x1d, -0x1b, -0xf, -0x1, 0x13, 0x3, 0x0, 0x6, 0x4, -0x8, -0xb, -0xd, 0x21, 0x1a, 0x16, -0x17, -0x16, -0x9, -0x38, -0x29, -0x12, 0x2b, -0x1, 0x9, 0x7, -0x8, -0xd, 0x1a, 0x8, -0x9, -0x5, -0xb, -0x4, 0xb, 0x9, 0x9, 0xc, -0x21, -0xd, -0x4, 0xb, -0x7, -0x11, 0x1b, 0x10, -0x16, 0x5, -0x6, -0x1f, -0x1a, -0x8, 0x17, 0x2a, 0x40, -0x11, -0x18, -0x6, -0xa, -0x17, 0xb, -0x1, -0x1d, -0x25, 0x34, 0x2a, 0xa, 0x6, 0x3, -0x2, -0x3, 0x9, -0x20, 0xb, 0x16, -0x16, -0x24, -0x5, 0x1b, 0x1c, -0x23, -0xe, 0x28, -0x3, -0xe, -0x4, 0x18, -0x18, -0x5d, 0xa, 0x10, 0x12,
-0x6, 0x4, -0x20, 0x43, 0x3, 0x13, 0x2f, -0xf, -0x1c, 0xe, 0x17, 0xb, 0x6, -0x6, 0xb, 0x4, 0x24, -0xc, -0x2b, 0x1, -0xc, 0xb, -0x6, 0xb, 0x1b, -0x21, 0x4, 0x18, 0x7, 0x6, 0xd, 0x8, 0x2, -0x4, -0x13, 0x23, 0x8, -0x12, -0x5, 0x2e, 0x30, -0xb, -0x13, 0x11, 0x11, -0x15, -0x17, -0x1, -0x16, 0x1a, -0x8, 0x22, -0x13, -0x1c, -0xe, 0xf, 0xd, 0xd, 0xc, 0x22, -0x9, -0x8, 0x18, -0x3, -0x3, -0x2, 0x15, 0x1d, -0x10, -0x9, -0x1, -0xa, 0x0, -0x3, -0x1b, -0x39, 0x1, 0x43, -0x16, -0x3c, -0x24, 0x3b, 0x1c, 0x18, 0x16, 0xd, -0x2, 0xb, -0x2, 0x0, -0x9, -0x8, 0xe, -0xd, -0x1d, 0x16, -0x5, -0x23, 0x15, -0x9,
-0x2f, 0x20, -0x3, -0x24, 0x16, -0x19, -0x20, 0xe, -0xa, -0xe, -0x3, 0x9, -0x2e, 0xa, 0x14, -0x1a, 0x6, 0x1b, -0x11, -0x9, -0x12, 0x3, -0x1, -0x3, 0x15, 0x3, -0x3, -0x6, -0xd, 0x12, 0x6, -0x23, 0x1, 0x4, 0xa, 0x15, 0x15, -0x17, -0xa, 0x22, -0x2, 0xc, 0x10, -0xb, 0x15, -0xe, -0x5, 0x4, 0x10, 0x7, -0x1c, -0xd, 0x1b, -0xc, -0xf, 0xe, 0x5, -0x6, 0x4, -0xe, -0x1a, 0x17, 0x15, -0x1e, 0x9, 0x10, -0x10, -0x1, 0xb, -0x9, -0x10, -0xb, -0xb, 0x6, -0xd, -0x12, 0x8, -0xb, -0x12, 0x0, -0x8, -0x5, 0x3, -0x2, -0x1c, -0x2, 0x10, -0x6, -0xa, 0x1c, 0x17, 0x9, -0x10, -0xe, -0x5, 0x9, 0x4, -0x23, 0xf, 0x2,
0x12, -0x8, -0xd, 0x5, -0xc, -0x11, 0x0, -0x8, -0x5, -0x1c, -0x1b, -0x2, -0x18, -0xa, 0x11, -0x14, 0x6, 0x1d, 0x1d, -0x12, -0x35, 0x26, -0x6, -0x2b, 0xc, -0x24, -0x22, -0x17, 0x18, -0x2, 0x1e, -0x6, 0x1, -0x19, 0xb, -0x9, -0x8, 0xb, -0x8, 0xa, -0xa, 0xa, -0xd, 0x6, -0x9, 0x2e, -0x30, 0x5, -0x3c, 0x8, 0xe, 0x10, 0x38, -0x3c, -0x22, -0x12, 0xb, -0x16, 0x4f, -0x21, 0x20, -0xa, -0x17, -0xb, 0x2e, 0xa, 0x10, 0x6, -0x13, -0x2, -0xc, 0x3, 0x5, -0xb, 0x7, 0x45, -0xb, -0x3b, -0x24, -0x9, 0x29, -0x2c, 0x16, 0x12, 0xd, 0x5, -0x20, 0x5, 0x2, 0x23, 0x40, -0x7f, 0x26, -0x5e, 0x6d, 0xb, 0x2c, -0x10, -0x30, -0x3,
-0x35, 0x4, -0x43, 0xd, 0x18, 0x24, 0x2f, -0x2a, 0xb, -0x15, -0x2a, -0x4, -0x1e, 0x3b, -0x11, 0x2d, 0x14, -0x13, -0x6, -0x7, 0x11, -0x1c, 0xd, 0x7, 0xd, 0x7, 0x18, 0x14, -0x17, -0x9, -0x17, 0x24, -0xf, -0x13, 0x13, -0x5, 0xe, -0x18, -0x1f, 0x41, -0x1, 0x26, -0x2d, -0x7, -0x3, -0x3, 0x18, -0x11, -0x9, 0xa, 0x12, -0xa, -0xb, -0x4, -0x1c, -0x18, 0x7, -0x6, 0x11, -0x1, -0x13, 0x8, -0x23, 0x28, 0x6, 0x11, 0x2d, -0x56, -0x1, -0x43, 0x5d, 0x8, 0x42, 0x15, -0xf, 0xf, 0x2, -0x24, -0xd, -0x1e, 0x19, 0x1e, 0x18, 0x14, 0xf, 0x8, -0x12, -0x15, -0x8, -0xd, 0xd, -0xc, -0x13, 0x8, -0x2, -0xc, 0x12, 0xb, 0x5, 0xd,
0x0, -0x3, -0x3, 0xa, 0x0, 0x7, 0x10, 0x10, 0x1a, 0xc, 0x1b, 0x3d, 0x19, 0xb, 0x19, -0xd, 0x1, 0x13, 0x1, 0x9, 0x1c, 0xa, -0x11, -0x4, 0x8, -0x14, 0x2, -0x3, -0x1, 0x1d, 0x17, 0xc, 0xa, 0x4, 0x4, 0xf, 0xc, 0x2, 0x4, -0x8, 0x15, 0x1a, -0x15, 0xe, 0x24, 0x15, 0x0, 0x16, 0x0, -0xe, 0x12, -0x1a, -0x2, 0x41, 0x25, -0x3, 0x21, 0xd, 0x0, 0xc, -0x29, 0x5, -0x9, -0xe, -0x3, -0x1, -0xf, 0x4, 0x6, -0x14, 0x4, 0x11, 0x15, 0x15, 0x13, -0x4, -0x6, -0x7, -0x20, 0x4, 0x8, -0x6, 0x15, 0x23, 0x18, 0x8, 0x11, -0x1e, -0xd, -0xd, -0x30, -0x6, 0x3, -0x1d, 0xa, 0x11, -0x7, 0x6, 0x16, 0x18,
0x15, 0x1b, 0xd, 0x11, 0xe, -0x7, 0x18, 0x23, 0xd, 0x2e, 0x1c, 0x1, 0x3, 0x1e, -0xd, -0x2, -0x14, -0x6, 0xb, -0x10, 0x0, -0x16, -0xb, 0x8, 0x15, 0x16, -0xe, 0xd, 0x10, 0xf, -0x1f, -0xe, -0x11, -0x3d, -0xf, 0x15, 0x5, -0x1c, -0x24, 0xf, 0xb, 0x1a, -0x1, -0x4b, -0x33, 0x25, -0x30, -0x24, 0x51, 0x1b, 0x1a, -0xc, -0x15, -0x2, -0xc, -0x17, -0x14, -0x6, 0x0, 0x6, 0x14, -0x18, 0x23, 0x1b, -0x4, 0x18, 0x1c, -0x4, -0x13, -0x10, -0xd, -0x5, -0x33, -0x2b, 0x26, 0xe, 0x23, 0x10, -0xe, 0x16, 0xf, 0x12, 0x40, 0x2b, 0x6, 0x6, -0x5, 0x3, -0x2, 0x13, -0x8, -0x32, -0x7, 0x5, -0xf, 0xa, 0x0, 0xb, -0x16, 0xa,
0x10, 0x1b, 0x10, -0x5, -0x1f, -0x7, 0x12, 0xd, -0x46, -0x34, -0x21, -0x10, 0x5, 0xa, -0xf, 0x2f, 0x2a, -0xb, 0x22, 0x7, 0x0, 0x19, -0x15, 0x1, 0x3b, -0x16, -0x9, 0x1e, -0x30, 0x7, -0x2, -0x5a, -0xa, -0x18, -0x9, 0x4, -0x13, -0xd, 0x7, -0x15, -0x25, -0x8, 0x31, 0xd, -0x8, 0x19, -0x9, -0x1b, -0x12, -0x23, -0x30, 0x0, 0x12, 0x1b, 0x56, 0x1f, 0x17, -0x8, 0x1, -0x10, 0x1b, -0x2, 0x28, -0x9, 0x32, -0x1b, -0x14, -0xe, 0xe, 0x1b, 0x2a, 0x17, -0x8, -0x8, 0x14, 0x5, 0x11, 0x30, 0x37, 0x2d, -0x2e, -0x5e, -0x4d, 0x14, 0x24, 0x12, 0x16, -0x6, -0x8, 0x4, 0x1c, 0x54, -0x26, -0x26, -0x2b, 0x4, 0x0, 0xf, -0xa, 0x1a,
-0x10, -0xd, 0x5, -0x7, 0x4, 0x15, -0x13, -0xf, 0x1, 0x2, -0x1c, -0x46, -0x6, -0x7, -0x27, 0x12, 0x14, 0xb, -0x45, -0x2, -0x6, 0x29, 0x6, 0xb, -0x2f, -0x2e, -0x6, 0x47, 0x16, 0xf, -0x14, 0x7, 0x0, -0x2, -0x13, -0x2d, -0x3c, -0x7, 0x39, 0x16, -0x9, -0x5, -0x11, 0x1, -0x14, -0x1, 0x7, 0x1b, 0x7, -0x5, -0x9, -0x1, -0x3, -0x14, -0x1f, 0x3, 0x7, 0x25, -0x22, -0x27, -0x1a, 0xa, 0x19, 0xd, 0xc, -0x14, 0x8, -0x6, -0x15, -0x11, -0x15, -0x1e, 0x34, 0x1c, 0x3d, -0x27, 0xc, -0x5, -0x9, -0x1e, -0x16, -0x1e, 0xb, 0x7, 0x27, -0x17, -0x11, -0xa, 0xb, 0x1b, 0x1a, 0x12, -0x5, 0x1, 0x10, 0x2e, -0x7, -0x3c, -0x45, 0x14,
0x30, 0x5, -0x12, -0xb, -0x9, 0xf, -0x4, -0x5, 0x8, -0x1, 0xc, 0xf, 0x1f, -0x4, -0x6, 0x6, -0x13, -0x10, 0x5, 0x3, 0xc, -0x14, -0x13, -0x9, -0xc, -0x24, -0x16, -0x2, 0x12, 0xa, 0xd, 0x26, 0x14, 0x6, 0x14, -0x3, -0x1d, -0x13, -0x29, -0x9, -0x5, -0x19, 0x1, 0x8, -0xc, 0x6, 0x24, 0xe, -0x14, -0xe, -0x5, -0x14, -0x5, -0x4, 0x5, -0x1, -0x24, 0x18, -0x19, 0x16, 0x37, -0x3, -0x1a, -0xf, -0x3, 0x1c, 0x6, -0xb, -0xb, -0xc, 0xc, 0x4, -0x1, -0x12, -0x1, -0x1a, 0x5, -0x4, 0x8, 0x12, -0x21, 0x57, 0x34, -0x10, -0x17, -0x3, 0x14, 0x5, -0xe, -0x6, 0x24, 0x0, -0x10, -0x6, -0x7, 0x4, 0x5, 0x0, 0x9, 0x4,
0x2, 0x10, -0x3, -0xa, -0x17, -0x7, 0x15, 0xb, 0x8, 0xd, 0x1a, 0x4, -0x9, 0x1, 0x5, -0x2c, 0x3, 0x20, 0xc, 0x9, 0xe, 0xb, 0x4, -0x9, -0xd, -0x2, -0x25, -0x1e, -0x9, 0x6, -0x2, -0x13, 0x4, 0x0, -0xd, 0xe, 0xa, 0x2, 0x20, 0xf, -0xc, -0x12, -0x2, 0x10, 0xf, -0x19, 0x3, -0x2, 0x6, 0x23, 0x3, -0x11, 0x6, -0x1d, -0x20, -0x10, -0x6, -0x13, -0x17, -0x18, -0x23, -0x13, -0x1c, -0xd, -0x1, 0x2d, 0x1, -0x2, -0xa, -0x10, 0xe, -0x23, 0x8, 0x2d, -0xe, -0x21, -0xf, 0x7, 0x8, -0xe, 0x36, 0x12, -0x10, -0x10, -0xb, -0x6, -0x9, 0x1e, 0xd, -0x16, 0x1d, 0x9, 0x11, 0x19, -0xb, 0xc, -0x12, 0x3, -0x2d, -0x17,
0x3, -0x2d, -0xf, -0x9, 0xa, 0x22, 0xd, 0x2b, 0x2f, 0x11, 0xf, 0x1d, 0x11, -0x5, -0x20, -0x9, -0x5, -0x43, -0x29, 0x17, -0x4, 0xf, 0xb, 0x16, 0x14, -0x2, -0x5, -0x28, 0x10, -0xb, -0x6, 0xa, 0x1, -0x1, -0x22, -0x9, -0x10, -0x1a, -0x12, -0x5, -0xb, 0x4, 0x14, 0xc, 0x12, 0x7, 0x18, 0x2b, 0x2e, 0x0, 0x6, 0x4, -0x4, -0x1d, -0x14, 0x1, -0x14, 0x2, 0x1b, 0x17, 0x4, -0x19, 0x5, 0x4, 0x12, 0x13, -0x10, 0x1f, 0x26, 0xd, 0xb, 0xc, 0x0, -0xf, -0xa, -0x14, 0x24, 0x1b, 0x5, 0x9, -0xa, -0x12, 0xa, -0x1, -0x15, 0x3, -0x1a, -0x8, -0xe, -0xc, 0x2b, -0x29, 0xd, -0xc, -0x18, 0x12, 0x5, 0x3, 0x4, 0x15,
-0x7, -0x2, -0x20, 0x16, 0x14, -0x5, 0x5, 0xc, 0x5, -0x13, -0x13, 0x1f, -0x42, -0x1c, 0xe, -0xd, 0x1b, 0x5, -0x3, -0x19, 0xc, -0x1e, -0xe, 0x2c, -0x1f, -0x4, 0x1e, 0x14, -0x1, 0xb, -0x6, -0x1e, 0x4, -0xe, -0x5, 0xb, -0x2, -0x2, 0xd, 0x0, 0xd, 0x2, 0x5, -0x21, -0x4, -0x25, -0x2e, 0x16, 0x15, -0x1a, -0x6, 0x3, 0xb, 0x1, 0x1d, -0x19, 0xd, 0x8, -0xe, 0x15, 0x13, 0x13, -0xb, 0x2f, 0x14, 0x2, -0x30, -0x5, -0x1a, -0x34, 0xd, 0xd, -0xe, -0x14, -0x14, -0x20, -0x35, -0x2, -0x2c, -0x20, -0x19, 0xf, 0x0, -0x12, -0x2, -0x8, 0x0, 0x7, 0xf, 0x18, 0x34, 0x1, -0x7, 0x13, -0xc, -0x15, -0x6, -0x5, -0x13, 0xb,
-0x10, -0x11, 0x3d, -0xa, 0x16, 0x3c, -0x6, -0x23, -0x6, 0xc, 0x19, -0x1c, 0x2, 0x29, -0x1c, -0xb, 0x1a, 0x12, -0x3, -0x6, 0x9, -0x4, -0xc, 0x0, -0x1d, -0x1d, -0x6, 0x5, -0x11, 0xb, 0x17, -0x1, 0x18, -0x23, -0x8, -0x1e, -0x11, -0x21, 0x3, 0xb, -0xb, 0x16, 0x10, 0x14, 0x17, 0x21, 0x2c, 0x6, 0xf, 0x2, 0xa, -0x13, -0x21, -0xf, 0x21, 0x1f, -0x5, 0x8, 0x2, -0x18, -0x16, 0xa, 0x4, -0xb, 0x4, 0x4, 0x8, -0x7, -0x20, -0x14, -0xe, -0x24, 0xc, 0x21, -0x7, 0x8, 0x5, -0x8, 0x9, -0x6, 0x8, -0x4, -0x5, -0xa, -0xe, -0x2, 0xb, -0x13, -0xf, 0x1e, 0x15, 0x3, -0x4, 0xc, -0x3, -0xe, -0xd, -0x17, 0x8, 0x23,
0xf, 0x12, 0x2c, 0xd, -0x2, 0x6, 0x3, -0x16, -0x1a, -0x5, 0x8, 0x4, 0x5, -0x3, 0x15, 0xc, 0x10, -0x3, -0xb, 0x7, -0x8, -0x5, -0x14, -0x18, -0x4, 0xa, 0x10, 0x11, 0x0, 0x3, 0xb, -0x1c, -0x1a, -0x1, -0x10, 0x19, 0x1a, -0x8, 0x19, 0x11, -0x1f, -0x2, 0x9, 0x9, 0x12, -0xc, 0x5, 0x7, -0x12, 0x9, 0x0, -0x10, 0x7, 0xa, 0x15, -0x1c, -0x13, 0x4, -0x2c, -0x23, -0x1e, -0x7, 0xb, -0x6, -0x14, -0x7, -0x10, -0x17, 0x0, -0x1c, -0x19, -0x9, 0x12, 0x3, -0x1b, -0x19, 0xa, -0xc, 0x1, 0x6, 0x1d, -0x13, 0x44, 0x3, -0x34, 0x21, -0x13, -0x2b, 0x1c, -0xb, -0x9, 0x1b, -0xa, -0x1e, -0x16, -0x22, 0x1, -0xd, -0xd, 0x13,
-0x14, -0x1a, 0x3c, -0x1f, -0x6, 0x18, -0xd, 0x1b, -0x16, 0x28, -0xd, -0x2b, 0x27, -0x27, -0x15, -0x19, 0x21, -0x2d, 0x17, 0x3e, -0x40, -0xd, 0x1f, -0x29, -0xf, 0x11, 0x10, -0x15, -0x1, 0x21, -0x1f, -0xa, -0x2, -0x29, -0x1e, 0x2f, -0x11, -0xe, 0x13, -0x7, 0x14, 0xb, 0xa, -0x16, -0x19, 0x12, -0x9, -0xd, -0x18, 0xe, 0xb, -0x5, 0x0, 0xb, 0x25, 0x4, 0x2b, -0x6, -0xd, -0x6, 0x23, 0x4, 0x4, -0x3, -0x18, 0x3, -0x7, -0x17, 0x1e, 0x0, -0x1, -0x5, 0x1c, 0x5, 0x8, 0x7, -0x16, -0x16, 0x4, 0x1, -0x6, 0x3, 0xd, -0x4, 0x3, 0x1b, 0x4, -0x1d, -0x10, 0x4, -0x2b, -0x1d, 0x15, -0x27, -0x4, 0x19, 0x10, -0xa, -0x17, 0x30,
-0x1e, -0x1, 0x18, -0x11, 0x2, 0x21, 0x4, -0x7, 0x1d, -0x1, -0x3, 0x9, 0x0, 0xd, -0x20, -0x35, 0x24, -0x33, -0x3b, 0x3e, -0xb, 0x22, 0x1b, -0x3d, -0x25, -0x3, -0x45, 0x43, 0x25, -0x13, 0x20, 0x8, -0xe, 0x10, 0xa, -0x1c, -0x7, 0x7, -0xc, -0x12, -0x6, -0x29, 0x1f, 0x22, -0x2, 0x52, 0x1, -0x12, 0x0, -0x1c, 0x17, 0x5, -0xd, -0x39, 0x3f, 0x6, -0x3d, 0x2c, 0xc, -0x1d, 0x10, 0x1, 0x12, 0x1c, 0x1a, 0xf, -0x5, 0x0, -0xe, 0x6, -0x27, -0xf, 0x46, -0x33, 0x12, -0x10, -0x2, 0x8, -0x11, 0x2, 0x5, -0x15, 0x1f, 0xf, -0xd, 0x12, 0x1b, -0x3f, 0xa, -0x9, -0x62, -0xc, -0x7, -0x1f, 0x2, 0x0, -0x5, -0x2c, 0x7, 0xe,
-0x6, 0x26, 0x15, 0x7, -0x1, 0x2, 0xc, -0x13, 0x12, -0x5, 0xb, 0xc, -0x25, 0xd, 0x1c, -0x4, -0xd, 0x11, -0xe, -0x15, -0xf, -0x17, 0x11, 0x15, -0x5, 0x0, 0x5, -0xd, 0x0, 0x23, 0x4, -0xd, 0x7, 0x8, -0xd, 0xc, -0x8, -0x19, -0x8, 0x1, 0x10, -0x9, 0xd, -0xc, -0x8, -0x1, -0x5, -0xe, -0x1, -0xe, -0xe, -0xa, 0xb, 0x12, 0x28, -0x6, -0xc, -0x18, -0x9, 0x19, 0x6, 0xe, 0x59, -0x13, -0x1b, -0x11, -0x2e, -0x21, 0xf, 0x0, -0x3, 0x60, 0x1b, -0x3, 0x3d, 0x1d, 0xd, 0xf, -0x5, -0x4, 0x9, -0xd, -0x1d, 0x1e, 0xe, -0x2b, -0x10, 0x39, -0x3f, 0x28, 0x7f, -0x47, -0xd, 0x7, 0x16, 0x18, -0x29, 0x29, 0x1, -0x16,
-0x7, -0x3c, -0x22, -0x13, -0xf, 0x0, -0x14, -0x21, -0xf, 0x12, 0x12, 0x12, 0x22, 0x23, 0x22, 0x8, 0x11, 0x8, 0x2, 0x2, -0x12, -0x1a, 0xf, 0x22, -0x30, 0x7, 0xc, -0x20, -0xb, -0x25, -0x17, 0x11, 0x16, -0x1c, -0x19, -0xe, -0x2a, -0x8, 0x9, -0x24, 0x9, -0x7, 0xd, 0x1f, -0x5, 0xd, 0x1b, -0x2f, 0x28, 0x1b, 0x11, 0x1a, 0x6, 0xb, 0x1a, 0xf, 0x9, -0x21, -0x15, -0xf, 0x0, -0x2, -0x13, 0xe, 0x3, -0x12, -0x5, 0x25, 0x20, 0x12, -0x7, 0x1b, -0x26, -0x41, -0xf, 0x1, -0x5, 0x5, 0x7, -0xa, 0x1b, 0x19, 0x8, 0x11, -0x3, 0x29, -0xe, 0x3, 0x31, 0xa, -0x2, 0x16, -0x1a, 0x1, 0x2, -0x11, -0x12, -0x2d, -0x3c, -0x21,
-0x2a, -0x2e, -0x1a, 0x5, 0x22, 0x7, -0x1c, 0xd, 0x17, -0x11, 0xa, 0x7, 0x0, 0xf, 0x6, -0x17, -0x8, -0x6, -0x15, 0x5, 0x11, -0xd, 0x1, 0x16, -0x4, -0xa, 0x1d, -0x5, 0x3, 0x1c, -0x23, 0x15, 0x48, -0x22, 0x33, 0x1f, -0x21, 0x18, -0x5, 0xe, -0x2, -0x6, 0x8, 0x0, 0x1b, 0x0, -0x4, -0x1c, -0x4, -0xb, -0x1e, 0xa, -0x4, -0x12, 0x11, 0x0, -0xf, -0x5, 0x9, 0x1, -0x38, 0x18, 0x1e, -0x14, 0x26, 0x27, -0x3, -0x18, 0x6, -0x23, -0x25, 0xe, -0x14, -0x1e, -0x9, 0x7, -0x5, -0xd, 0x4, -0xd, 0xf, 0x1c, 0xb, -0x11, 0x29, 0x11, -0x9, 0x18, -0x11, -0x20, -0x7, -0x16, -0x2, -0x3, -0x12, -0xe, -0x21, -0xd, -0x14, -0x3,
0xd, -0xf, -0x2b, 0x0, 0x1, -0x3a, -0x6, 0x15, -0x20, -0xb, -0x1, 0xb, 0x5, 0xb, -0x1b, -0x8, 0x3, -0x3c, -0x11, -0x9, 0x0, 0x5, 0x21, 0x9, 0xe, 0x1a, 0x10, 0xe, 0x2, 0xe, -0x7, 0x14, -0x15, 0x7, 0x18, -0x14, 0x1a, 0xe, 0xf, 0x24, 0x17, 0x1b, 0x8, -0xa, 0xb, 0x0, -0x18, -0x23, -0x6, -0xe, -0x34, -0x16, -0x5, -0xf, -0x15, 0x11, 0x13, 0xf, 0x10, -0x14, -0xd, -0xf, -0xc, 0x9, 0x15, 0xc, -0xb, 0x8, 0x13, 0x8, -0x9, 0x1, -0xf, -0x13, -0x1, 0x5, -0x3, -0x2, -0x19, 0x2, 0x7, -0xe, 0x14, 0x2c, 0x1f, 0x7, 0x8, -0xa, -0x1d, -0x29, -0x10, -0xc, -0x24, -0x19, -0x3, 0xc, -0x2, 0x7, 0x15, 0x13,
0xe, 0x24, -0x10, -0x12, -0x2, 0x7, -0x9, 0x1, -0xd, -0x1e, -0x1b, -0x1, -0x15, -0x2, 0x2, -0x9, 0x2, 0xd, 0x7, -0x1, -0x4, -0x7, 0x5, 0x2, -0x1, -0xa, -0x2, 0x4, -0x2, -0x1, 0x6, 0x8, 0x0, -0x2, -0x2, 0x9, 0xa, 0xb, 0x1, 0xe, 0x16, 0x15, -0x4, 0x6, 0x2, 0xe, 0x1, -0x1a, -0x2, -0x6, -0x1a, -0x3, -0x6, -0x12, 0xd, 0xf, 0xf, 0x8, 0x11, 0x12, -0x8, -0xc, 0x0, 0xd, 0x1d, 0x12, 0x26, 0x32, 0x12, -0x4, 0x18, -0x8, -0x8, 0xc, 0x16, -0x6, -0x25, -0x19, -0xe, -0x9, -0x15, 0x2, 0x2a, 0x38, -0xe, -0x4, 0x8, -0xc, 0x2, 0x11, 0x1, 0x9, 0x1e, 0x9, 0x2, 0x11, 0x2, -0x5, -0x9, -0x1d,
-0x1d, -0x5, -0x5, -0x7, -0x12, 0x10, 0x12, -0x7, 0x12, 0x45, 0x28, 0x15, 0x38, 0x10, 0xf, 0xf, -0x2d, -0xc, 0x5, 0x9, 0x3, 0x34, 0x20, -0x8, 0x0, -0x8, -0x4, 0x9, 0x2, -0x14, 0x16, 0x19, -0x13, 0x7, 0x17, 0x1a, 0x1, 0x16, 0x3, 0x0, 0x1b, -0xc, -0x3, 0x25, 0xb, -0x7, 0x5, -0x8, 0x17, 0x4, -0x2b, -0x13, -0x1, -0x25, -0x8, 0x22, -0xf, -0x14, -0xa, 0x13, -0xb, -0x1f, -0xd, -0xf, 0x17, 0x1a, 0x16, 0x26, 0xc, -0x10, 0x8, 0x16, 0x15, 0x27, -0x13, -0x20, 0x6, 0xa, -0x1a, -0x7, -0x2d, -0x1f, -0x1a, -0x47, -0x48, -0x34, -0x23, -0x32, -0x2d, -0xe, 0x10, 0xc, -0x1c, 0x2, -0x18, -0x11, 0x0, -0x1b, -0x1, 0x10,
0x21, -0x16, -0xe, -0x8, -0x2, 0x12, 0xc, -0x2a, -0xb, -0x1, -0x3a, -0x29, -0x1d, 0x1, -0x11, -0x1d, 0x10, -0x11, 0x12, 0x14, 0x10, -0x6, 0xf, 0x1c, 0x30, -0xe, 0x9, -0x2, -0x6, 0x8, 0x25, 0xd, -0x9, 0x12, 0x1f, 0x34, 0xa, 0xa, 0x20, 0x1, 0x12, 0x3, -0x1b, -0x4, 0x0, -0x1, 0x1, 0x9, 0xf, 0x1c, 0x15, -0xd, -0xf, 0xd, 0x6, -0x12, 0xf, 0x0, -0x3, 0x12, -0xd, -0x17, 0x12, 0x0, -0x12, -0x4, -0x1b, 0x5, 0x26, 0x5, -0xd, -0x5, -0x6, 0x5, 0x7, 0x1d, 0x26, 0x25, 0x2, -0x3, 0x6, -0x9, 0x4, -0x8, -0x4, 0x6, 0x8, -0xb, -0x11, -0x8, -0x4, 0x19, 0x19, -0x8, -0x7, -0xe, -0x2, 0x2, -0xd, 0x0,
-0x3, -0xf, 0x0, -0xd, 0x1, -0xb, -0x9, -0x1b, -0x5, -0x34, -0x42, 0x0, 0xe, -0x5, 0x20, 0x9, 0xd, 0x18, -0x8, 0xf, 0xe, -0x16, -0x12, -0x2, 0xc, -0x1, 0x6, 0xd, 0x2f, -0x8, 0x18, 0xd, -0x1b, 0xd, -0x6, -0x11, 0xe, 0x5, -0x7, -0x10, -0x19, -0x1a, 0x1a, 0x5, 0x13, 0x3, -0x11, 0xc, 0x20, 0x1, 0x2, -0x8, 0x9, 0xa, -0x1, 0x1f, 0x7, -0x2, -0xd, 0x0, 0x14, 0x2c, 0x12, 0x29, 0x2f, 0x1c, 0xd, 0x1d, 0x3, 0x4, 0x20, 0xa, 0x7, 0x1f, 0x7, -0x17, -0x18, -0x18, 0xd, -0x3, -0xe, -0x8, 0x2, 0x6, -0x3, -0xb, 0x1, -0x5, 0x8, 0x10, -0x1c, -0x11, 0x19, -0x1, -0xe, 0x17, 0x7, -0x5, -0x7, 0xb,
0x12, 0x0, -0x1a, 0x11, 0xf, 0x1c, 0x11, -0x5, 0x1e, 0xf, 0x3, 0x6, -0x1, 0x18, -0x7, -0x18, -0x14, -0x10, -0x15, -0x16, 0x6, 0xb, -0x1, 0x5, -0x16, 0xf, -0x1a, -0x28, 0x12, -0xd, -0x6, 0x3, 0x3, 0x2, 0x13, 0x12, -0x10, -0xc, 0x1, 0x5, 0xb, 0x1a, 0x1f, 0x2, 0xe, 0x1b, -0x6, 0xc, 0x1d, 0x17, 0x8, 0x0, 0x3, -0x1b, -0x18, 0x18, -0x1, 0x1, 0xa, 0x0, 0x7, -0x7, -0xb, -0x12, -0x8, -0x3, -0xd, -0x6, -0x8, 0x4, 0x4, 0x4, 0x1, 0x11, 0x8, 0xc, 0xb, -0x5, -0x1, -0x3, -0x8, -0xf, -0x18, 0x17, 0x8, 0xb, 0x15, 0x20, 0x5, 0x10, 0x7, -0xe, -0xf, -0x1d, -0x22, 0x12, -0x1, 0x1, 0x3, 0x9,
0x15, -0x5, -0x4, 0x17, -0x17, -0x9, 0x7, -0x1e, -0x20, -0xd, -0x5, -0xa, -0xb, -0x6, 0x7, 0x11, 0x2, 0x20, 0x15, 0xe, 0x24, 0x6, 0x5, 0x0, -0xe, 0xb, 0x19, -0x6, -0x2, 0x3, 0x6, 0x19, 0x19, 0xe, -0x4, -0x8, 0x8, -0xc, -0x18, -0x3, 0x4, -0x5, -0x7, 0x3, -0xa, 0x1d, -0x5, -0x2d, -0xf, 0x8, 0x18, -0x9, 0x1f, 0x28, -0xa, -0x2b, -0x20, -0x10, -0x1, -0x18, -0x5, 0xf, 0xb, 0x15, 0xb, 0x22, 0x2c, 0xd, 0x14, -0xe, -0x1c, -0x23, -0x44, -0xd, -0x11, -0x15, -0xb, 0x2, 0x5, -0x2, -0x6, -0x4, 0x18, 0x19, 0x8, 0x8, 0x4, 0x1b, 0x1c, -0x9, -0xb, -0x1, -0x26, -0x23, -0x15, -0x25, -0x14, 0x19, -0x3, -0x17,
0x18, -0x11, -0x9, 0x18, 0x20, 0x17, -0x3, -0x2, 0x14, 0x1, 0x2, 0x20, -0xe, -0x3, -0x7, -0x14, -0x10, -0x18, -0x1, 0x3, 0xc, 0x4, 0x1, -0xe, 0x2, 0x3, -0xb, 0xf, 0x18, 0x9, 0x8, 0x5, 0x7, 0xb, -0x1d, -0x1f, 0x21, -0x11, -0x8, -0x1f, -0x22, -0x27, -0x34, -0x46, -0x2e, -0x19, -0xd, -0x15, -0x19, -0x21, -0x48, -0x10, -0x23, -0x17, 0x15, 0x8, 0x25, 0x7, -0x2b, -0x15, -0x8, -0x2d, -0xf, -0x6, -0xa, -0xf, 0x3, 0xe, 0xe, 0x19, -0x1, -0x4, 0x1f, 0x1a, 0x4, -0x9, -0x11, -0x11, -0x3, 0xb, 0xd, 0x15, -0x27, -0x11, -0x28, -0x3, -0x3, -0x3d, -0x15, -0x12, -0x27, -0x2, 0x1, 0x13, 0x1d, -0x2a, -0x15, 0xf, -0x20, 0x2,
0x19, -0xc, 0x1b, 0x29, 0x11, -0x6, 0x16, 0x2, 0xd, 0x22, 0xa, 0xb, 0x28, 0x2f, -0x2, 0x9, 0x40, 0x7, -0x1d, -0x6, -0x1d, -0xd, -0x10, -0x4, 0x11, -0x12, 0x9, -0x1a, 0x9, -0xd, 0x21, -0x3, -0x1a, 0x0, 0x7, 0x1, 0x7, 0x8, 0x21, -0x4, 0x4, 0xb, -0x1e, -0x4, -0x4, -0x13, -0x7, -0x19, -0xa, -0x8, -0xa, -0x6, 0xc, -0x7, -0x3, 0x9, -0xc, 0x2, -0x4, 0x1, 0x3, 0xb, -0x5, 0x4, 0x19, 0x11, 0x0, 0xa, -0xe, -0xe, 0x4, -0x19, -0x8, 0xd, -0x32, -0x25, -0xf, -0x18, 0x15, 0xa, -0xf, 0x35, 0x1, -0x8, -0x8, -0x5, -0x15, -0x17, -0xe, 0x1, -0x20, -0x17, -0x28, -0x22, -0x25, -0xa, 0x9, -0x10, -0xa, 0xb,
0x9, -0x17, 0x9, 0x2d, 0xd, 0x11, 0x1e, 0x15, -0xc, 0x16, -0x17, -0xc, -0x43, -0xb, 0x7, 0x0, -0x13, -0x15, 0x12, 0x26, 0x27, 0x1, -0x6, 0x37, 0x1c, 0x4, 0x7, 0x2a, 0xf, 0x9, -0x5, 0x13, 0x13, 0x2b, 0x7, 0x8, 0x17, -0x3, 0x4, -0xb, 0x1e, 0xe, -0x2d, 0xa, 0x15, -0x14, 0x2, -0x4, 0x6, 0x2f, 0x2, -0x1, 0xf, 0x18, 0xf, -0x6, 0x2c, 0xf, -0x3a, 0x18, 0x1b, -0x17, -0x14, 0x7, -0x1c, -0xe, -0x5, -0x25, -0x2c, 0x0, -0x30, -0x24, 0xb, -0xd, -0xf, -0x17, -0x12, 0x2, 0xd, 0xa, 0x13, 0x13, 0x1, -0x2, 0xd, -0x1e, 0x1d, 0x11, -0x11, -0x8, 0x9, 0x12, 0x9, -0x19, 0x40, 0x21, -0x6, 0x18, 0xc, -0x2,
0x6, 0x9, 0xc, 0xc, 0x3, -0xe, 0x9, 0x19, -0x1, 0x11, -0x5, -0x2b, 0x18, 0x24, 0x2, 0xd, 0x18, -0x14, 0x21, 0x5, 0x6, -0x6, -0xd, -0xc, -0x12, -0x9, 0x12, 0x9, -0x1a, -0xf, 0x9, -0x19, -0x7, -0x14, -0xe, -0x1, -0x32, 0x8, 0x14, -0x20, -0xc, -0x1b, 0x2, 0x1d, 0x3, -0x19, -0x7, 0x26, 0xd, -0x1, -0xf, 0x1f, 0x10, -0x20, -0x13, -0x5, -0x1c, -0x2d, -0x24, -0x7a, -0x7, -0xa, -0x2e, 0x24, 0x15, 0x16, 0x16, 0x2, -0x5, -0xc, -0x1a, -0x12, 0x19, 0xa, 0x3, 0xa, -0x1, -0xa, 0xb, 0x2, 0x5, 0x7, -0x4, -0x11, -0x1, -0x24, -0xe, 0x2, 0x5, -0x11, -0x3, 0x4, 0xa, -0x9, 0x12, 0x1e, -0xb, 0xc, 0x24, -0x13,
-0x18, -0xb, 0x1a, 0x1a, -0x5, 0x2a, 0x27, -0x25, 0x5, -0x9, -0x13, 0x18, 0x9, -0x18, 0x25, -0x1, -0x13, 0x14, 0x24, 0x28, -0x5, 0x18, 0x20, 0xc, 0x1b, 0x1a, 0x6, 0x12, 0xd, -0x5, -0x13, -0x1, 0xd, -0x3, -0x19, 0x23, 0x26, 0x29, 0x20, 0x1b, 0x14, 0x6, -0xd, 0x4, -0x9, -0x5, -0x7, -0x1f, -0x9, 0x7, -0x24, 0x1, 0x13, -0x13, -0x14, -0xb, -0x1e, -0x10, -0xa, 0xb, 0x9, -0x6, -0x1, -0xa, -0x4, -0x12, -0x6, 0xf, -0x5, 0x11, 0x1, -0x3, -0x14, -0x19, -0x6, -0xb, -0x15, 0xc, -0x4, -0x3, -0x15, 0x8, -0x1, 0x4, 0xe, -0x4, -0x7, -0x3, -0xd, -0x23, -0x10, -0x3, -0x3, 0x9, 0x8, 0x3, 0x1, -0x3, 0x15, 0x17,
0x5, 0xc, 0x8, 0x1, -0x14, -0x6, -0xd, -0x15, 0x3b, -0x13, -0x71, 0x1f, 0x20, 0x31, -0x16, 0x5, 0xe, 0x1, -0x11, 0x15, 0x7, -0x4, 0x5, -0x3, 0xb, 0xb, 0xa, -0x29, -0x16, -0x13, 0x1d, -0x8, -0x8, -0x4, -0x3b, 0xe, 0x8, -0x3, -0x12, 0x22, 0xd, -0x2, -0xa, 0x2, 0x31, -0x13, 0x8, -0x48, 0x3d, -0x1, -0x10, -0xb, -0x18, 0x6, -0xd, -0x14, 0x45, -0x2, 0x1f, -0x28, 0x13, -0x19, -0xd, 0x1, 0x0, -0x7, -0xa, -0xb, -0x19, -0x20, -0x29, -0x15, 0x6, 0x6c, -0x4d, -0x5, -0x8, 0x2e, -0x1c, 0xf, 0x12, -0x23, 0x1c, -0x11, 0x8, 0xf, -0x2, 0x21, -0x9, -0x13, -0x16, -0x5, -0x18, -0x9, 0x3, 0xb, 0x1d, 0x8, 0x0, 0x3,
0xe, -0x11, 0xc, -0xb, -0x1f, 0x1, 0x3, 0xe, 0x5, -0x5, 0xa, 0xd, -0x9, 0x3, -0x6, 0x21, -0x2, 0x9, -0x23, 0x2b, -0x10, 0x23, -0x22, 0x7, 0x2a, 0x11, -0x21, -0xf, 0x2f, 0x5, 0x19, -0x29, 0x4, -0x17, -0x1a, 0x6, 0x2, -0xb, 0x9, -0x8, -0x24, 0x7, 0x2e, 0x29, -0x23, -0x2f, 0x3e, -0x7, -0x30, 0x4, 0x10, 0x18, 0x1a, -0x30, 0x18, -0x12, -0x1f, -0x8, -0x1, -0x1d, -0x3, 0x6, 0x1e, -0xd, -0x1c, -0x12, -0x18, -0x20, 0x5, 0x19, -0x18, -0x8, 0x1e, -0x1f, 0x16, -0x2, 0x7, 0x4, 0x2, 0xc, -0x8, -0x5e, -0xb, 0x20, 0x12, 0xc, 0x10, -0xd, 0x20, 0x31, -0x1b, 0xf, -0xe, -0x19, -0xe, -0x14, -0x22, 0x2, 0x7, 0x0,
-0x1a, 0x18, -0x1, -0x1b, 0x7, 0x5, -0x2b, -0xf, -0x9, -0x1f, 0xf, -0x15, -0x9, 0x8, 0x33, -0x12, -0x2c, 0x4, -0x24, -0x20, -0x6, 0xf, 0xb, 0x37, 0x2b, -0x5, 0x21, 0x15, -0x21, 0xd, 0x16, 0xd, 0x7, 0x35, 0x11, 0x3c, 0x37, 0xe, 0x27, -0x1, 0x13, -0x1c, 0x4, 0x13, -0x16, -0xe, 0x19, -0xb, -0x25, 0x1c, -0x4, -0x13, -0x3, -0x19, -0xc, 0x1, -0xe, 0xa, -0x8, -0x20, -0x13, -0x13, -0xd, -0x11, -0x8, -0xb, -0x2, -0x8, 0x14, 0xb, -0x1e, 0x13, -0x1e, -0x21, -0x1b, -0x1f, 0x6, 0x17, 0x5, -0x13, 0x18, -0xe, -0x15, -0xa, -0x10, 0x7, -0xf, 0x21, 0x1b, 0xb, 0x12, 0x1b, 0x1, 0x31, 0x6, -0x3, 0x6, 0x0, -0x6, -0x1b,
0x7, 0xf, 0xa, -0x1, 0x8, 0x3, -0x12, 0xd, 0x19, 0x14, 0xb, 0x14, 0x15, 0x23, 0x4, -0x1a, 0x2c, -0x7, -0x1a, -0x1a, -0x25, -0x15, 0xa, 0x1f, 0x9, 0x13, -0x1, -0x8, 0x0, 0x5, 0xf, -0x1, 0x0, -0x23, 0xf, 0x1e, -0x12, -0x1, 0x1e, 0x4, 0xc, -0x8, -0x2d, -0x5, 0x7, 0xb, 0x13, 0x2b, 0x20, -0x16, 0x1, 0xd, -0x19, -0x8, -0x6, 0x4, 0x4, -0xa, 0x1a, 0x8, 0x16, -0x9, 0x12, 0xa, 0xc, 0x1a, 0x0, 0x1c, 0x18, 0x11, -0x10, 0x13, 0xc, 0x4, 0x8, -0x16, 0x14, 0x22, 0x6, 0x15, 0x14, 0x10, 0xf, 0x2, 0x9, -0xf, -0x2d, -0x1a, -0x24, -0x33, -0x13, -0x1d, -0x26, 0x2, 0x8, 0x0, 0x1, 0x3d, 0x18, -0x15,
0x24, -0xf, -0x3d, -0x9, 0x1, 0xc, -0x13, -0xa, 0x8, -0x3, -0x11, 0x3, -0x18, 0x6, 0x7, 0xe, -0x5, -0x1a, 0x4, 0xb, -0x1c, -0x9, -0xf, -0xc, -0x21, -0x1b, 0x8, -0x1e, -0x1a, 0xd, -0xb, -0x3, 0xa, -0x5, -0x4, 0xc, 0x8, 0x6, 0x0, -0x12, -0x21, -0x13, 0xc, -0x11, -0x25, 0x33, 0x3, -0x1e, 0x4, 0x2, 0x9, -0xf, -0x5, 0x5, 0x5, 0x18, 0x25, -0x9, -0x3, 0x9, -0x1c, -0x23, -0x8, 0xc, -0x10, -0xe, -0x21, -0x24, 0x1c, -0x16, -0x2d, -0x16, 0x18, -0x1, -0x14, -0xa, -0xe, -0x12, 0xc, 0x18, 0xc, 0x1d, 0x18, 0x8, -0x33, -0x2f, 0x24, -0x36, -0x5a, -0x15, -0x13, -0x5c, -0x2f, 0xa, 0xb, -0x6, 0x5, 0x15, 0x1, -0x29,
0xb, 0xe, -0x24, -0x33, -0xf, -0x1d, -0x3c, -0x2d, 0xb, -0x19, -0x1f, -0x37, -0x28, -0xb, -0xa, -0x23, -0x1e, 0x18, -0xa, -0x29, 0x10, 0x1d, -0xf, -0x1c, 0x2, -0xe, -0x1d, -0xb, 0x10, 0x8, 0x3, 0x1, -0x24, -0x28, -0xc, -0x34, -0x17, 0x12, 0x15, 0xb, -0x3, 0x3, 0xc, 0x3, 0x15, 0x1e, 0x21, 0x3, 0xa, 0xb, 0x11, 0x11, 0xf, 0x12, 0x3, 0x6, 0x1b, 0x2b, 0x15, 0x1c, 0x25, -0x4, 0x20, 0x24, 0x1, 0xf, 0x1c, 0x8, 0x10, 0xf, 0x2, 0x16, 0x19, 0x28, 0x1b, 0x1b, 0x8, -0x9, 0x16, 0x23, 0xb, 0x36, 0x35, 0xb, 0x2, 0x2, -0x1f, 0x7, 0x11, -0x16, 0x0, 0x14, 0xf, -0x6, -0xa, 0x32, -0x1b, -0x3, 0x15, -0x1,
-0x3, -0x3c, 0x3a, 0x6, -0x6a, 0x51, 0x0, -0x24, 0x10, 0x4, 0x0, 0x8, 0x1, -0x15, 0x20, -0xb, -0xb, 0xd, -0x13, 0x44, -0x62, 0x9, 0x60, -0x7c, 0x17, 0x3a, -0x2b, 0xa, 0xf, 0x6, -0x9, 0xf, -0x16, -0xe, -0x8, -0x5, 0x6, -0x35, 0xb, 0x11, -0x31, 0x45, -0xc, -0xe, 0x1b, -0xe, 0x5, -0x7, 0x3, 0xf, -0x17, 0xe, 0x13, -0x20, 0x9, -0x14, 0x17, -0x4, -0x16, -0x4, 0x4, -0xf, -0x5, 0x13, 0x10, -0x11, 0x15, 0x17, -0x21, 0x13, -0x14, -0x10, -0x9, -0x15, 0x23, -0x12, -0x37, 0x2d, -0x11, -0x13, 0x14, 0xb, -0x24, 0xb, 0xb, -0xf, 0x4, 0xf, 0xe, -0xd, -0x2, 0xb, 0x2, 0x4, 0x2, -0x8, -0x7, -0x6, -0x7, -0x7,
-0xc, -0x7, -0x6, -0x7, 0x4, 0x4, -0x5, -0x2, -0xf, 0xb, -0x13, -0x17, 0x16, -0x12, -0xc, -0x6, 0x6, 0xc, 0x7, -0xa, 0x0, 0x1b, 0x2, 0xe, 0x6, -0x1d, 0x5, 0x0, -0x21, -0x16, 0x14, -0x1, -0xa, 0x10, 0x4, -0x1c, 0x3, 0x3, -0x5, 0x5, 0xb, 0x10, 0xa, 0xe, 0xb, 0x17, 0x13, -0x2, 0x0, 0x9, 0x2, 0x6, 0x13, 0xb, -0xc, 0x15, 0xa, -0x1b, 0x5, 0x13, -0x3a, -0x15, -0x4, -0xb, -0x1d, -0x19, -0x9, -0x28, -0x2d, 0x2, -0x1, -0xb, 0x14, 0x10, 0x1, 0x13, 0x17, 0x1d, 0x8, 0x9, 0xd, -0x7, -0x4, -0x12, 0x6, 0x15, 0x1, 0x4, -0x4, -0x1e, 0x27, -0xc, -0x17, 0x2d, 0x1f, 0x8, 0xf, 0x22, 0x16, -0x43,
-0x49, -0x24, -0x30, -0x52, -0x2b, -0xd, -0x26, -0x20, -0x19, -0xa, -0x19, -0xc, 0xd, -0xa, -0x4, 0x13, -0x2, -0x29, -0x41, -0x21, -0x10, -0x2a, -0x1c, 0x3, -0x15, -0x25, -0x5, 0x13, 0x10, 0x4, 0x23, 0x26, 0x1, 0x9, 0xc, -0x18, -0x1a, -0xd, -0xf, -0x1c, -0x1b, 0x19, 0xe, -0x6, -0x2, 0xa, 0x9, 0x7, 0x14, 0x10, 0x15, 0xe, 0x0, 0x15, 0x8, -0x3, 0x13, 0x15, 0x2, 0xb, 0x19, 0x2, -0x8, 0x18, 0x18, -0x2d, -0x18, -0x1, -0x5, -0x27, -0xb, 0x19, -0x2, -0x15, 0x34, -0x6, -0x19, 0x31, -0xf, -0x2a, 0x12, 0xd, 0x5, 0x12, 0x10, 0x11, 0x22, 0x16, 0x12, -0x9, 0x9, 0x12, 0xa, 0x4, 0x9, 0xe, 0x15, 0x10, 0x47, 0x10,
-0x10, 0x2d, -0x1, -0x11, -0x13, -0x18, -0x21, 0x8, -0x2, 0xc, -0x17, 0x5, 0x14, -0xc, 0x1c, 0x38, -0x22, 0x7, 0x16, -0x32, -0x5, 0x1b, -0x27, -0x18, 0x5, -0x6, -0xf, 0x2, -0x11, -0x14, 0x10, -0x25, -0x16, -0x6, 0x20, 0x15, -0x9, 0xb, 0x0, -0x11, -0x14, -0xb, -0x1c, 0x1, 0x1c, 0x9, -0x19, 0x24, 0x16, -0x24, 0x16, 0x0, 0x17, 0x1f, -0xf, 0x3, 0x2a, -0xa, -0x8, 0x1e, -0x5, 0x27, 0x19, -0x24, 0x3d, 0x1a, -0x1f, 0x1b, 0x6, -0xf, 0x2, -0x3, -0xb, 0x4, -0x3, 0x1, 0x5, 0x0, 0x9, 0x7, 0x18, 0x2, -0x1, 0x1e, 0x11, -0xe, 0x7, 0x6, -0xe, -0x2, 0xd, -0x17, 0x8, 0x19, -0x6, 0x4, 0xe, -0x29, -0x21, 0x4,
-0xa, 0x6, 0x11, 0x0, 0x1a, 0x13, -0x7, 0x1c, -0x15, 0x1e, 0x36, 0x5, 0x2f, 0x22, -0xd, -0xe, -0x24, -0x5, -0x18, -0x1d, -0xe, -0x34, -0x24, -0x12, 0x0, 0x0, -0x3, 0xf, 0x1c, 0xd, 0x7, 0xd, 0x5, 0xc, 0x1, -0xa, 0x19, 0x7, -0x9, 0xf, 0x4, -0x7, 0x3, -0x2f, -0x3d, -0x12, -0x12, 0x2, -0x32, -0x11, -0x5, 0x8, 0x1, -0xa, -0xb, -0x14, -0x11, -0x29, -0x31, -0x11, -0x3, -0x12, -0x10, 0xf, 0xa, -0x1, 0x1a, 0x15, 0x0, -0x1e, -0xe, 0xd, -0x22, -0xb, 0xf, -0x23, -0x10, -0x1, 0x13, -0x4, -0xd, 0x3, 0xa, 0x0, -0x8, 0x4, 0xc, 0x1e, -0x23, -0x4d, -0x13, -0x3a, -0x1f, -0x21, -0x27, 0xd, -0x1, -0x6, -0x16, -0x2,
0x3, 0x3, -0xb, -0x4, -0x6, -0x12, -0x1, 0x14, -0x1, 0x21, 0x1b, -0x3, 0x14, -0x6, -0x3, -0x1c, -0xc, -0x14, -0x16, -0x5, -0x1e, 0x4, 0xc, 0x1, -0x1c, -0x14, 0x8, -0x15, -0x3, -0x4, -0x23, -0x1d, 0x6, 0xc, 0x9, 0x1, -0x6, 0x2, -0x7, -0x9, -0x2, -0x1, 0x22, 0x1a, 0x23, 0x32, 0x15, 0x15, -0xb, -0x28, 0x5, -0x5, -0x5, 0x4, 0xa, 0x13, -0x5, 0x10, 0x3, 0x2, 0x4, 0x14, -0x6, -0x6, 0x22, -0x19, -0x32, -0x10, -0x18, -0x15, -0x9, -0x1c, -0x2d, -0x1f, 0x14, 0x3, -0x17, -0x2b, -0x1c, -0x5, -0xa, -0x16, -0x2, 0xe, -0x12, -0x18, -0x2f, -0x8, 0x29, -0x7, -0x23, -0x4, 0x1b, -0x21, -0x1d, -0xb, -0x29, -0x24, -0xf, -0xc,
0x10, -0xb, -0x13, -0xa, -0x2f, 0x24, 0x35, -0x62, -0x39, 0x21, -0x19, -0x2b, -0x12, -0x7, -0xd, -0x3, 0x1e, -0x10, -0x1e, 0x6, -0x2, -0xa, -0xa, -0x23, -0x1c, 0x17, -0x12, -0x2f, 0x3, 0x2, -0x1a, 0x2, -0x24, -0x3, 0x31, 0x19, -0xa, 0xf, 0x31, 0x9, 0x1, -0x5, -0x6, -0xf, 0x3, 0xa, -0x22, -0x1e, -0x6, 0x23, -0x1, -0x7, -0x2, 0x1a, -0x6, -0x1d, -0x3, 0x16, 0x2d, 0x28, 0xf, 0x5, 0xb, 0x16, -0x29, 0x8, 0x11, -0x3c, -0x21, 0x1c, -0xb, -0x2f, -0xe, 0x25, -0x15, -0x47, 0x2f, 0x43, 0x1b, 0x4f, 0x64, 0x43, 0x13, 0x2b, 0x1d, 0x29, -0xb, -0x17, 0x1f, 0x1a, -0xd, -0x7, 0xf, 0x9, -0x2, -0x29, -0xb, -0x3, -0x25, -0x1c,
0x1e, 0x18, -0x4, 0xa, 0xb, 0x2, -0x1, 0xc, 0x23, -0x2e, -0x34, -0x33, 0xd, -0x2, -0x2, 0x18, 0x7, -0x1, 0x2, 0x3, 0x8, 0x5, -0x8, -0xa, 0x0, 0x0, -0x1, -0x18, -0x29, -0xf, 0x1d, 0x39, 0x1, 0x9, 0x2d, 0xa, 0x9, 0x38, 0x1f, 0x1a, 0x1d, 0x6, 0x16, 0x15, -0xc, 0xd, 0x24, 0x1c, 0x7, -0x1d, -0x4, -0x10, -0x42, -0x29, 0x34, 0x4, -0x22, 0xa, 0xf, 0xf, -0xa, -0xf, -0xa, 0x1d, -0x15, -0x2e, -0x19, -0x36, -0x2b, -0x8, -0x29, -0x2d, 0x24, 0x37, 0x1c, -0x7, 0x2f, 0x2e, -0x22, 0x6, 0x0, -0x13, -0x2, 0xb, 0x12, 0x25, 0x18, 0x4, 0x22, 0x20, -0x54, -0x23, 0x7, 0x7, 0x21, 0x2a, -0x4, -0xc, 0x2, -0xa,
0x10, 0xa, 0x1, 0x8, -0x3, -0xd, -0x3, -0xe, -0xb, 0x0, -0x5, 0x28, 0x27, 0x11, -0x10, -0x8, -0x13, -0x7, 0x2e, 0x2e, 0x6, -0x7, -0x6, 0xc, -0x6, -0x8, 0x25, 0x1d, 0x3, 0x1c, 0x7, 0x4, 0x17, -0x1, 0x2, 0x12, -0xd, -0x4, -0x20, -0xd, 0x15, 0x27, 0x2c, 0xf, -0x10, 0xb, -0x3, 0x0, -0x15, 0x6, 0x4, -0x1a, -0x6, -0x6, -0x32, -0x1e, -0x5, -0x17, -0x3, -0x13, -0x2f, -0x8, 0xe, -0x5, 0x9, -0x4, -0x15, -0xd, -0x18, -0x27, -0xd, -0x6, -0xf, 0x3, 0x15, 0x30, 0x2a, -0x5, -0x11, -0x5, -0x2a, -0x2f, -0x2d, -0x26, -0x26, -0x19, 0x12, 0x2b, 0x1b, 0x1e, 0x27, 0x12, -0xd, -0x7, 0x8, 0xb, -0x8, 0xe, 0x15, -0x2,
0xb, -0x2e, -0x18, -0x1b, -0xa, 0x10, 0xa, -0x2e, -0x6, -0x10, 0x0, 0xf, 0x15, 0x20, 0x1d, 0x24, -0x1, 0x1, 0xe, -0x8, 0x7, 0xa, 0x2, 0x17, 0x14, -0x27, -0x26, -0x27, 0x13, 0x1, 0x15, 0x12, 0x2, -0x6, -0x15, -0x13, -0xf, 0xd, -0x13, -0x18, -0x14, -0x20, -0x1b, -0x1, -0x11, -0x4, -0x16, -0x19, 0x1f, -0x11, -0x20, 0xc, 0xb, -0x1, 0x20, -0x21, -0x3c, -0x26, 0x20, 0x12, 0x1e, 0x25, 0x26, 0x24, -0x18, -0x1d, -0x5, -0x1c, -0x28, -0x14, -0x9, -0x18, -0x5, 0x2, -0x25, -0x1f, -0x3, -0x1d, -0xa, 0x15, 0xf, 0x13, 0x12, -0xc, -0x1, -0x1d, -0x40, -0x1c, -0x24, -0xe, 0x25, -0x1e, -0x19, -0x4, -0x41, -0x39, -0x4, -0x16, -0x11, 0x1f,
-0xd, 0x1, -0x7, 0x17, -0x7, -0x2a, 0x3, -0x13, -0x9, 0x39, 0x34, 0x13, 0x32, 0x43, 0x15, 0x1f, 0x7, -0x12, -0x6, 0x3d, 0x25, -0xb, 0x35, 0x15, -0x1e, 0xd, -0x10, 0xd, -0x9, -0xd, -0x3, -0x38, -0x2c, -0xd, -0xf, 0x0, -0x7, 0x1b, 0x35, 0xe, 0x7, -0x9, 0x4, -0x1e, 0x6, 0x21, -0xb, -0x20, -0x2e, -0x30, -0x13, -0x3a, -0x21, 0x19, 0x47, 0x3, -0x10, 0x34, -0x12, -0x18, -0xf, -0x22, -0x14, 0x0, 0x2, 0x18, -0x33, 0x11, 0x11, -0x14, 0x12, 0x2, 0x6, 0x5, -0xc, 0xc, 0x8, -0xd, 0x9, -0x15, -0xf, 0x1d, -0xa, -0x1c, 0x14, -0xb, -0x5, 0x13, 0x5, -0x6, 0x3, 0xd, 0x2, -0x8, 0x0, -0x3, 0xc, -0xb, -0x10, -0x19,
-0x3c, -0x1e, -0x11, -0x2d, -0x1e, -0x2, 0xd, 0x2d, -0x4e, -0x49, -0x17, -0x65, -0x54, -0x1d, -0x29, -0x22, -0x6, -0x18, -0x14, -0x7, 0xb, 0x1f, 0x18, 0xe, 0x7, 0x8, -0x39, 0x1, 0xf, 0x1b, 0x4, 0x7, 0x30, -0x10, 0xb, -0x18, -0x18, -0x1a, -0x3, -0x1, -0xd, 0x0, -0x13, -0x1b, -0x15, -0xf, 0x2, -0xa, -0x4, -0x7, 0x11, 0x7, -0x6, 0xe, -0x2, 0x2, 0xe, 0x5, 0x5, -0x4, 0x2, -0x7, -0x4, -0x1c, -0x31, 0xe, -0x7, -0x25, -0xc, -0xa, -0x27, -0x12, -0x1f, -0x22, -0xb, -0x12, -0x14, 0x3, -0x1b, -0x1a, -0xf, -0x3, 0x1d, 0x3, -0x6, 0x13, 0x6, -0x11, 0x15, 0x9, -0x14, -0x14, 0x48, 0x1d, 0x13, 0x11, 0x3, 0x5, -0x18, -0xd,
-0x2, -0x12, -0xf, -0xe, 0x9, 0x4, -0x11, 0x31, -0xc, -0x4, 0x32, 0x1c, 0xc, 0x2a, 0xd, -0x5, -0xb, -0xa, 0xb, 0x11, 0x5, -0x14, -0x1, 0x2, -0xe, -0x34, -0x2b, -0x6, -0x28, -0x40, -0x35, -0x30, -0x29, -0x1f, -0x3e, -0x1f, -0x23, -0x46, -0x2d, -0x33, -0xa, -0x15, -0x2f, 0xf, -0x6, -0xb, 0x1e, -0x4, -0x1, 0x8, -0x1b, -0xc, -0x12, -0x2, 0x2, -0xc, 0x2, 0x5, 0x2, 0x3, 0x5, 0x2e, 0x12, 0x4, 0x1a, 0x13, 0xa, 0x9, 0x4, -0x4, 0x26, 0x19, 0x4, 0x21, 0xd, -0xf, 0x33, 0xa, -0x1, 0xb, 0x29, 0x31, 0x3a, 0x2b, 0x8, 0x20, 0x6, -0x12, 0x7, -0x8, -0xe, 0xb, 0x5, 0x1b, -0xe, 0x10, 0xa, 0xe, 0x21, 0xd,
0x24, 0x34, 0x1e, -0x4, 0x1c, 0xb, -0x16, -0x1c, -0x1c, -0x24, -0x38, -0x1c, -0x2d, -0x19, -0x11, 0xc, 0x27, 0x19, 0x17, 0x15, 0x15, -0x1, 0x3, -0xf, -0x1b, 0x1b, 0x20, 0x2d, 0x23, 0x7, -0x7, -0x9, -0x29, 0xd, 0x7, 0xe, -0x9, -0x4, -0x14, 0x1b, 0x3, -0x13, 0x32, 0x35, -0x6, 0xc, -0x38, -0x24, -0x2a, -0x2e, 0x3, -0x4, -0x17, -0x16, -0x8, -0x21, -0x3b, -0x1d, -0x37, -0x34, 0x10, -0xa, -0x1d, -0x4, -0x17, -0x26, -0x21, -0x1c, -0x9, -0xe, -0xf, 0x14, -0x16, -0x13, 0x1b, -0x4e, -0x32, 0x2b, 0x9, 0x1a, 0x17, 0x11, 0x7, -0x1d, -0x35, -0x2a, -0x2f, -0x19, -0x1a, 0x12, 0xf, 0x25, 0x34, 0x1f, 0x32, 0x3, -0x5, 0x9, 0xd, 0x5,
0x8, -0xc, -0x2, -0x23, -0x35, 0x7, -0x14, -0x20, -0x1c, 0xb, 0x1d, -0x17, 0x1, 0xc, -0x15, 0x1e, 0x3c, 0x43, 0x3c, -0x5, -0x1, -0x30, -0x16, -0x1b, -0xe, -0x24, 0x1e, 0x1a, 0x32, -0xd, -0x27, 0x7, -0x3a, -0x33, -0x1a, -0x4, -0x1f, -0x17, -0xc, -0x1b, -0x14, -0x10, -0xd, -0x4, 0x5, 0x15, -0xc, 0x3, 0x0, 0xc, 0x5, -0x4, 0x32, -0x11, -0x18, 0x7, -0x9, -0x1b, -0x15, -0xa, 0x15, 0xa, 0x13, 0x6, 0x26, -0x29, -0x44, -0x34, -0x3, 0x19, -0x39, -0x40, 0x14, 0x25, -0x7f, -0x4f, -0x15, 0x12, -0x30, 0x8, 0x60, 0x7, -0xe, -0x10, 0x6, -0x1a, -0x3b, -0x56, -0x2a, 0x9, -0x23, -0x7, -0x26, -0x2e, -0x23, -0xa, 0x5, -0x21, 0x18, 0x30,
0x17, -0x4b, -0x7, 0x1a, 0x4, -0x23, -0x1e, 0x51, 0x0, -0x22, 0x29, -0x34, -0x4b, -0x3, -0x2c, -0x29, 0x2d, -0xe, -0x3c, 0x10, 0x1, -0x47, 0x7, 0x31, 0x2c, 0x11, 0x1d, 0x47, -0x2b, -0x1f, 0x12, 0x14, 0x12, 0xa, -0x4, 0x9, 0x13, 0x2, 0x23, -0x5, -0x27, 0x22, 0x38, -0x2c, 0x3b, 0x68, -0x30, -0x3, 0x27, -0x1b, 0x1, -0x18, -0x1d, 0x6, -0x1e, -0x2b, -0x1, -0x18, -0x21, 0xe, -0x1, -0x18, 0x35, 0x25, -0x36, 0x1, 0x42, -0xe, 0x12, 0x13, -0x17, 0xa, 0x1b, -0x21, -0xe, -0x13, 0x5, 0x16, 0x2, 0x0, 0x6, -0x9, -0x9, -0x7, -0x6, 0x31, 0x1f, -0xb, 0x21, 0x24, 0xe, 0x4, 0x1e, 0x18, -0x1a, 0x19, 0x2b, -0x38, -0x11, 0x11,
-0x27, -0x1, 0x13, -0xb, 0x3, 0x10, 0x0, 0x10, 0xe, 0x11, 0x1e, -0x6, 0x19, -0x9, -0x7, 0x10, 0x2, -0x4, 0x7, 0x7, -0x7, -0x7, 0xa, 0x17, -0xd, -0x3, -0xb, -0x14, -0x12, -0x13, 0x13, 0x2, 0x4, 0x1d, 0xd, -0x1, 0x16, 0xc, 0x0, -0x4, -0xc, -0x3, -0x16, -0x13, 0x2, -0x1e, -0x23, -0x8, 0x16, -0x1, -0x29, 0x1d, 0x17, -0xf, 0xe, 0x1d, 0xd, -0xa, -0x8, -0x1, -0x18, -0x2b, -0x15, -0x31, -0x3e, -0x22, -0x11, 0x16, 0x19, -0x23, 0xf, 0x14, -0x20, 0x14, 0x2, 0x8, 0x16, -0x1b, 0x3, 0x17, -0x21, 0x17, 0x28, 0x3, 0x6, 0x14, 0x5, 0xb, 0x1e, 0x8, 0x10, 0xf, 0x2, 0x2, -0x4, 0x1, -0x5, -0x2, -0x1, 0x3,
0x9, -0x9, 0x29, 0x16, -0x27, 0x2a, 0x9, -0x2b, 0x25, -0x5, -0x2e, -0x22, -0x11, -0x8, -0xd, -0xa, 0x1e, -0x11, -0x20, 0xb, 0x11, 0x4, 0x12, 0x15, 0x6, 0x1e, 0x1, 0x1a, -0xa, -0x16, -0x1, 0x0, 0x1f, 0x13, 0x5, 0x1a, 0x11, 0x11, 0xb, 0x8, 0x11, -0x4, -0x6, 0x13, -0x15, -0x26, -0x3, -0x18, -0x1, 0x1d, -0x13, -0x13, 0x1a, -0x13, -0x1f, 0x1, 0x17, 0x1d, -0x16, -0x10, 0xa, -0x2, -0x11, -0x2, 0x10, 0x1e, -0xf, -0x10, 0x3d, 0x6, 0x6, 0xe, 0x0, -0x2, -0xc, -0x7, 0xb, -0x5, -0xe, 0xe, -0x9, -0xa, -0x1, 0x20, 0x8, -0x8, 0x28, 0xa, -0x6, 0x11, 0x7, 0x7, -0xb, 0x21, 0x15, -0xc, 0x25, 0x26, -0x26, 0x8,
0xa, 0x7, 0xa, 0x1c, -0xc, 0xf, 0x33, -0x2e, -0xf, 0x17, -0x26, 0xf, 0x1c, -0x2b, 0x12, 0x27, -0x11, 0x6, 0xf, -0x17, -0x7, -0x22, 0x13, 0x12, -0x9, 0x1a, 0x15, 0xd, 0xf, 0xa, -0xf, 0xf, -0x3, -0xa, 0x0, -0x5, -0x8, 0x1b, -0x1a, -0x2f, 0x1e, -0x1a, -0x38, 0x19, 0x5, -0x22, -0x14, 0xa, 0x20, -0x2c, 0xf, 0x21, -0x1b, 0x2, 0x11, -0x14, -0x2a, -0x25, 0x3b, 0x35, 0x11, 0x2a, 0xb, -0xc, -0x10, -0x31, -0x42, -0x26, -0x38, -0x2a, -0x20, -0x1e, -0x18, -0x19, -0x1e, -0x15, -0x4, -0x11, -0x8, -0xd, -0x6, 0xb, -0x19, -0x6, -0xe, 0x2, -0x7, 0x2, -0x1, 0x6, 0x5, 0x6, -0x1f, -0x1c, -0x16, -0x28, -0xb, 0x7, 0x3, 0x11,
0xb, -0x14, -0xd, 0x11, 0x0, 0x10, -0x9, 0xb, 0x20, 0x6, -0xf, -0xd, -0x8, 0x5, 0xe, -0x24, -0x2a, -0x16, 0x2a, 0x11, -0x8, 0x18, -0x2, -0x16, 0x20, -0x5, -0xd, 0xd, -0x5, -0x28, 0x2e, 0x17, -0x6, 0x12, 0x18, 0x7, -0x3c, -0x4c, -0x3b, 0xe, 0x19, 0xc, 0x16, 0xb, -0xf, 0x20, 0x2d, 0x15, 0x29, 0x2b, 0x6, -0x7, -0x12, -0x1b, -0xe, -0x14, -0x23, -0x15, -0x2c, -0x2c, -0x2a, -0x5, -0x1, -0xc, -0x11, -0xc, -0x2d, -0x45, -0x3e, -0x9, 0x1b, 0x22, 0x1, -0xe, -0x13, -0x2, -0x15, -0x7, -0x9, -0xc, 0x5, 0x15, 0x21, 0x8, 0x4, 0x3, -0x23, -0x24, -0x15, -0x7, 0x11, -0x7, -0x6, 0x0, -0x1, -0xe, 0xa, 0x3, -0x23, -0x5,
-0x1, -0x2c, -0xb, 0xc, -0x29, 0x39, 0x4a, 0x1, 0x2, -0xe, -0x16, 0x3, -0x1, -0x5, 0x17, 0xa, 0xb, 0x0, 0x4, 0x9, -0x3, 0xf, 0xa, -0x6, 0xd, 0xd, -0x5, -0xb, -0x18, 0x3, -0x7, -0xf, 0x5, -0x9, -0x8, 0x16, 0xa, 0x2, 0xe, -0x2, -0x5, 0x12, -0x5, -0x10, 0x1b, -0x12, 0x12, 0x49, 0x2a, 0x1f, 0x35, 0x26, 0x1d, 0x1, -0x8, -0x9, -0x6, -0xc, -0x9, -0x1, -0xa, -0x6, -0x10, -0x13, -0x10, 0xb, -0x15, -0x33, 0x0, 0x6, -0x1e, -0x1f, -0xf, -0xb, 0xf, 0x10, -0x14, 0xd, 0x1f, -0x1a, 0x2, 0x21, -0x1, -0x32, -0x2, -0x1c, -0x27, 0x5, -0x12, -0xc, 0x1, -0x2, 0x2, -0x11, -0x10, 0x1c, -0xe, -0x1b, -0x5, 0x5,
-0x21, 0x6, 0x34, 0x11, 0x0, 0x2f, 0x1, 0x24, 0x1f, 0x1c, 0xb, -0x1, -0x22, 0x3, 0x7, -0x1e, -0xa, -0x38, -0x20, -0x9, -0x2e, -0xf, 0x5, -0x5, 0x11, -0x3, -0x29, -0x3b, 0x11, -0x1d, -0x31, 0x1f, 0xc, -0xd, -0x19, -0x22, -0x12, -0x14, -0xd, -0x9, 0xa, 0xf, 0xd, 0x3b, 0x9, -0x4d, 0x7, 0x32, 0x1d, -0x39, -0x9, 0x3f, 0x2, 0x17, 0x17, -0x5, 0x14, 0x23, -0x2, -0x9, -0x2, -0x24, -0x28, -0x9, -0x4, -0x37, -0x38, 0x11, 0x1c, -0x13, 0xd, 0x0, -0x6, 0xe, 0x9, -0x1d, -0x11, 0x16, -0x14, -0x9, 0x7, 0x13, -0x29, -0x5, 0x1e, -0x12, -0x15, 0x11, 0x7, -0xe, -0x14, 0x6, 0x14, -0xa, 0x9, 0x10, -0x10, -0x39, 0x1c, 0x3a,
-0x24, -0x1e, 0x43, 0x5, -0x2e, -0xc, -0x19, -0x11, 0x14, -0xe, -0x30, 0x4, 0x12, -0x1a, 0x10, 0x22, -0x29, -0x1, 0x3b, -0xf, -0x39, 0x16, 0x19, -0x2d, -0xe, -0x40, -0x18, 0x38, -0x5, -0x26, 0x19, 0x22, -0xc, 0xc, -0x1c, -0xd, 0x25, -0xf, -0x25, 0x1b, 0xf, -0x12, -0x2, -0x14, -0x3e, 0x3d, 0x2f, -0x15, -0x9, 0x22, 0x25, -0x11, -0x17, 0x5, 0x2, -0xc, -0xd, 0x2, -0xa, -0x7, 0x9, 0x29, 0x1f, 0x20, 0x41, 0x41, 0xe, 0x22, 0x30, -0xc, 0x0, 0x13, 0x8, -0x8, 0x2, -0x3, -0x12, -0x1a, -0x7, -0x1e, 0x23, -0x14, -0xf, 0x26, -0x14, -0x23, -0xd, -0x1a, -0x29, -0x34, 0xb, -0x8, -0xf, 0x28, 0xc, -0x2, 0xd, 0xc, 0xb, 0x22,
0x8, 0x7, 0xe, 0x4, 0x4, -0x3, 0x1, 0x6, -0xf, -0x6, -0x7, 0x7, 0xe, 0x8, 0xa, 0x31, 0x19, -0x9, 0x21, 0x1d, 0x15, 0x23, 0x22, -0xd, -0x2, 0x15, -0x1, 0x12, 0x16, -0x10, -0xb, -0x1e, 0x14, -0x12, -0x1b, -0x2, -0x1, 0x1, 0xb, -0x7, 0x8, 0x1a, -0xd, -0xa, 0x16, -0x4, 0x1, -0x5, 0x9, -0xc, 0xb, -0x16, -0x9, -0x3, -0x9, -0x2, 0x2, -0x2, -0x8, 0x4, -0x15, -0x1e, 0x16, 0x6, -0x21, -0x19, -0x1c, -0x36, -0x6, -0x2, -0x2f, -0x10, -0x22, -0x26, -0x28, -0xe, 0x9, 0x15, 0xb, 0xe, 0x13, 0x1a, 0xd, 0x9, 0x9, 0x9, 0x7, 0x8, 0xa, 0x29, 0x32, 0x1e, 0x17, 0x22, 0x4, 0x8, 0x1c, 0x22, 0x3c, 0x2e,
0x2f, 0x1e, 0x13, -0xa, -0x3, -0x2, -0x1, -0x8, -0x9, 0xa, 0xa, 0x5, 0x13, 0x0, 0x11, -0x7, 0x1b, 0x21, -0x5, 0x24, 0x2a, 0x10, 0xd, -0x25, -0x2b, -0x2b, -0x3a, -0x11, -0x33, -0x2, 0x1a, 0x29, -0x8, -0x17, 0x48, 0x23, 0x18, 0x2b, 0x7, 0x22, -0xf, -0x5, -0xa, -0x9, 0x4, 0x12, 0x24, 0xa, -0x12, -0x12, -0x4, 0xa, -0x1e, -0x20, -0x13, -0x15, -0x23, -0xe, -0x5, 0x11, 0x4, 0x7, 0x23, 0x18, -0x17, 0x1d, 0x37, -0x5, -0x1, -0x5, -0x16, -0xf, -0x1, -0x1b, -0x27, -0x11, -0x53, -0x2f, -0x1c, -0x22, -0x16, -0x11, 0x14, 0x2a, 0x10, -0x29, -0x19, -0x25, 0xa, 0x21, 0x2a, 0x1e, 0x33, 0x34, 0x0, -0x19, -0x16, 0x2e, 0x38, 0x0,
0x40, 0x4f, 0x39, -0x26, -0xb, -0x16, -0x7, 0x12, 0x0, -0x15, 0x1a, 0x31, 0x25, 0x23, 0x1, -0x5, 0xa, 0x26, -0x3e, -0x17, 0xf, 0xf, 0x13, 0x16, 0x12, 0x25, 0x23, -0xe, -0x10, -0x19, -0xa, -0x2d, -0x31, 0x9, -0xc, -0xe, 0x0, 0x8, 0x6, -0x6, 0x12, 0x11, 0x22, 0xb, 0x0, 0x17, -0xe, -0x44, 0x1c, 0x7, -0x11, 0x1d, 0x4, -0x15, 0x18, -0x1, -0x14, 0x22, 0x18, 0x4, 0x9, 0x21, 0x1b, -0x1f, -0x6, 0x6, 0x24, 0x18, 0x4, -0x3, -0xa, 0x10, -0x16, -0x24, -0x12, -0x1a, 0xc, 0x11, -0x8, 0xc, 0x12, -0x8, 0xc, 0x2, 0x2, 0x3, 0x10, -0x5, 0x4, 0x17, -0xd, 0x2, -0x1, -0x10, -0x16, 0x3, -0xc, -0x3, 0x4, 0x13,
0x15, 0xd, 0x1d, 0x18, -0x17, 0xd, -0x3, -0x31, 0x2, -0xe, -0x1b, -0x14, 0x9, 0x20, -0x6, 0x5, 0xd, -0x7, -0xb, -0xd, -0x1c, 0x0, 0x29, -0x18, -0x7, 0x1f, -0x18, -0x15, 0x12, -0x1a, 0xc, 0x10, -0x10, -0x2, 0x9, -0x1d, -0x18, -0x15, -0x3, 0x1c, 0x1d, 0xb, 0x25, 0x2f, -0x7, 0xc, 0x1d, 0xd, 0x2a, 0x2a, 0x1, 0x1a, 0x27, -0x18, -0x8, 0x3, -0x12, -0xe, -0x22, -0x4, -0x1, -0xd, -0x1e, -0x3, -0x2, -0xe, -0x1e, -0x16, -0xb, -0x12, 0x3, -0x5, 0x0, 0x3, -0x1a, -0x1d, -0x3, -0x4, 0xd, 0x26, 0x11, 0x6, -0x7, -0x1e, -0xd, 0xc, -0xf, 0x8, 0xf, -0x23, -0xc, -0x6, -0x4, -0x6, -0x1, -0x18, -0x1f, -0xf, -0x16, -0x15,
-0xa, 0xf, 0x15, 0x12, 0x16, 0x2e, 0x20, 0x1a, 0x24, 0x9, -0x2, -0x1e, -0x9, -0xd, -0x6, 0x5, 0xa, 0x1d, 0x1e, 0x1, -0x8, -0xf, 0x7, -0x2a, -0x23, -0x2, 0x2, -0x14, 0xa, -0x3, -0xf, 0x21, 0x15, -0xa, 0x12, 0x1f, 0xa, 0x5, -0x8, 0x0, -0x1, -0xb, -0x5, 0xb, -0xa, -0x3, -0xe, 0x4, 0x7, 0x2, 0x5, -0xa, 0xc, 0xb, 0x5, -0xf, 0x1, 0xa, -0x22, -0x2d, -0x4, -0x9, -0x23, -0x1f, 0x1d, -0x2, -0xf, 0x10, 0xd, 0x8, 0x2, 0x0, 0x8, 0x25, -0x9, -0x20, 0xe, 0x1c, 0xb, -0x3, 0x1a, 0x22, 0x3, -0x3, -0x3, -0x20, -0x13, -0x5, -0x6, -0xa, -0x11, 0x14, 0x21, 0x28, -0xb, 0x1, 0x15, -0x6, -0x2b, -0x32,
-0x1e, -0x3c, -0x25, -0xa, -0x27, -0x35, 0x1f, 0x3, -0xe, -0x6, 0x5, -0x7, 0x1b, 0x1, -0x17, 0x7, 0xb, 0x10, 0x2, -0x2, 0x1d, 0x4, -0x2c, -0x23, 0x39, 0xd, -0x5, -0x7, 0xc, 0x12, -0x4, 0x9, 0x1c, 0xd, -0x18, -0x1, 0x2, 0xc, -0x8, 0x2, 0xa, 0x4, 0x9, -0xa, -0xe, -0x1f, -0x2a, -0xc, 0x3, -0x36, -0x37, 0x14, 0x10, -0x2, 0x3b, 0x1a, -0x20, 0x25, 0x3c, 0x39, -0xb, 0x14, 0x47, -0x1a, 0x12, 0x38, -0x14, 0x8, 0x19, 0xf, 0x20, 0xf, 0x2c, 0x14, 0x8, 0x8, 0x2, -0x4, 0xa, 0xb, -0x6, -0x4, -0x1a, -0x18, 0x6, 0x6, 0x3, 0x11, 0x1d, 0x15, -0x1e, -0xf, 0x10, 0x7, 0x15, 0x1d, 0xf, 0x3, 0x5, 0xb,
-0xa, -0x14, 0xb, 0x6, 0x7, -0x4, -0x12, -0x13, 0x3a, 0x31, 0x8, 0x38, -0xb, -0x2b, -0x11, -0x38, -0x26, -0x16, -0x27, -0x3, -0x3, -0x8, 0x13, -0xa, -0x5, 0x1, -0x8, -0xa, -0x1e, -0x21, -0x27, -0x22, -0x17, -0x14, -0x10, -0xc, -0x1b, -0x1b, -0x1f, -0x9, -0x1, 0x19, 0xa, -0xb, -0x22, -0x5, -0x1, 0x10, 0x19, 0x25, 0x16, 0x19, -0x4, 0x16, -0x18, -0x21, -0x8, -0x15, -0x9, -0xf, -0x8, 0x3, 0xe, 0x28, 0x30, -0x1c, -0x16, -0xf, 0x11, 0x8, -0x9, -0x17, -0x1e, 0x5, 0x3, 0x15, 0x21, -0xb, 0x3, 0x1, 0x0, -0xe, 0x1, -0x13, -0x2e, -0x3, -0x1, -0x9, -0xe, 0x2, 0x3a, 0x2f, 0x19, 0x3e, 0x14, 0x20, 0xd, -0x12, 0x1b, 0x30,
0x35, 0x7, 0x0, -0x6, 0x7, 0xa, 0x2d, 0x11, 0x3, -0x16, -0x3, -0xa, -0x2f, -0x2f, -0x18, -0x2b, 0x9, -0x1e, -0x2a, 0xa, -0x1c, -0x24, 0x18, -0x4, -0x14, 0x9, 0xc, 0x3, 0x4, 0xb, 0x12, -0x1, -0x3, 0x8, 0x10, -0x1a, -0x27, -0x24, -0x20, 0x2, -0x20, -0x6, 0xd, -0x8, 0xb, 0xe, 0xc, 0x7, 0x5, 0xb, 0x6, 0x5, 0xd, -0xb, -0x12, -0x3, -0xf, -0x21, -0x5, -0xe, -0x21, -0x27, -0x26, -0x12, -0x31, -0xb, -0xa, -0x11, -0x1, -0x1, 0x1e, 0x1a, 0x1a, 0x28, 0x13, 0xb, 0xb, 0x6, -0xe, -0x1, 0x0, -0xc, 0xb, 0x6, -0x1, -0x9, -0xf, -0x1a, 0xc, 0x1, 0xa, 0x14, 0x17, 0x15, -0x4, 0x1, 0x9, -0x18, -0x1b, 0x4,
-0xc, -0x3, 0x12, 0x3, -0x9, 0xb, 0x16, 0x1e, -0x3, 0x38, 0x26, 0x14, 0x40, 0x2c, 0x3, 0x18, -0x19, -0xb, 0x8, -0x1b, -0x19, 0x9, -0x19, -0x16, 0x15, -0xb, -0x9, 0x1a, -0x12, -0x18, 0xc, -0xc, -0xe, 0x9, -0x6, -0x8, -0x10, -0x8, -0x4, -0x20, -0x10, 0x2, 0xf, 0x28, 0x34, 0x1d, 0x28, 0x15, 0x29, 0xf, -0x5, -0x1f, -0x3b, -0xd, 0x8, -0x15, -0x2b, 0x1a, 0x36, 0x36, 0xb, 0x4, -0x2, 0x6, 0x3, -0x1, 0x10, 0x2c, 0x1b, -0xf, -0x14, -0xa, 0x1f, 0x14, -0x3, 0xd, 0x16, 0x12, -0x32, -0x2f, -0x3, -0xd, -0x28, 0x3, 0xc, -0x36, -0x25, 0xa, 0x9, 0x15, 0xb, -0xa, -0xd, 0xb, 0xa, 0xa, 0x5, -0x16, -0x21, 0x11,
-0x7, -0x21, 0x2, 0x18, -0xd, 0x7, 0x11, 0x12, -0x1a, 0xd, 0x35, -0x12, -0x38, -0x13, 0xe, 0x10, -0x1e, -0xa, 0x1f, 0xd, -0x27, 0x5, 0x10, 0x9, -0x14, -0x15, 0xf, -0x5, -0x1e, -0xb, -0x8, -0x25, -0x9, 0x12, 0x4e, -0x29, -0x22, 0xb, -0x14, -0x37, -0x39, 0x3, 0xa, 0x21, -0x1c, -0x28, 0x2, -0xb, -0x21, -0x26, -0x1a, -0x23, -0x4, -0xc, -0x18, 0xf, 0x24, 0x2, 0x2, -0x20, -0x37, -0x1, 0xf, -0x19, -0xc, 0x36, 0x1a, 0x4, -0xb, -0xc, 0x1, -0x1, 0x15, 0x12, 0xa, 0x23, 0x20, -0x13, -0x14, -0x28, 0x9, 0x14, -0x7, -0xd, -0x6, -0x7, -0x22, -0x33, -0x4, 0x18, -0x5, -0x23, 0x3c, 0x52, 0x1e, -0x33, -0x11, -0x27, 0x0, 0x12,
0x5, 0x2e, 0x40, 0x11, 0x8, -0x4, 0x1a, -0x10, 0x3, 0x17, -0x4, 0x14, 0x12, -0x5, 0x3, -0x6, -0x1c, -0x17, 0x9, -0x16, -0xa, 0xf, 0x1b, 0x4, -0x2f, 0x4b, 0x51, 0x23, 0x7, 0x21, 0x5, -0x13, 0x2, -0x7, 0x21, 0x19, -0x8, 0xf, 0x4, -0x5, -0x16, 0x17, 0x17, -0x2f, -0x8, 0x1b, -0xb, 0x10, 0x33, -0x19, 0x1, 0xd, -0x4, 0x2, 0x4, -0xb, -0x13, -0x1d, -0x4b, -0x33, 0x0, -0x62, -0x44, -0x9, -0x1c, -0xe, 0x3, -0x2, 0x8, -0xd, 0x1, 0x1b, 0x12, -0x1a, 0x1, -0x4, -0x2, -0x1, -0x16, 0x32, 0x26, -0x14, 0x25, 0x2b, -0x16, -0xb, -0x1c, 0x0, 0x27, 0x15, 0xa, 0x2c, 0x17, -0x15, -0x18, -0x9, -0x5, -0x39, -0x27, 0x3,
-0x36, -0x14, 0x7, 0x17, -0x13, -0x1c, 0x39, 0x1f, 0x1a, 0x12, -0x6, 0x7, 0xc, 0x22, 0x1d, -0x5, 0x6, 0xd, 0x5, 0xf, 0xd, 0x5, 0x2, 0x6, -0xf, -0x12, 0x11, -0x1d, -0x27, -0x3, 0x2, 0xf, 0xf, -0x1a, -0x9, -0xf, 0x1, -0x2, -0x13, 0x17, 0x16, 0x3, -0x44, -0x2f, -0x26, 0x21, 0x27, 0x4, 0x18, 0x19, 0x1f, -0x15, -0x2a, -0x19, 0x9, 0x13, 0xb, 0xe, 0x4, 0x2, -0xa, 0x7, 0x12, 0x0, -0x12, -0xb, 0x5, -0x3, 0x5, 0x5, 0xa, 0x5, -0x7, -0x5, -0x1b, -0x3, -0x12, -0x8, 0x8, 0xf, 0x3, 0x7, 0x0, 0x3, 0x3, -0xc, 0x5, 0x0, -0x7, -0x10, -0x7, -0xe, -0x1d, 0x5, 0xe, 0x7, -0xe, -0xd, 0xf, 0x16,
0x1, 0xa, -0x1d, -0x49, -0x46, 0x38, 0x5d, 0x45, -0x38, -0x34, -0x29, -0x1e, -0x15, -0x22, 0x1f, 0x14, 0x20, -0xe, 0x8, -0x7, 0x16, 0x23, 0x29, -0x40, -0x63, -0x32, 0x30, 0x47, 0x1e, -0x10, -0x20, 0x1, 0x2a, 0x47, 0xb, -0x22, -0x31, -0x2f, -0x9, -0x1, 0x12, 0xc, 0x3, 0xc, -0x3, -0x3, -0xe, 0x2, -0x27, -0x27, 0x16, 0x4b, 0x54, -0x2, -0x1e, -0x25, -0x15, -0x1a, -0x2, 0x11, 0x8, -0x5, -0x6, -0x9, -0x2, 0xb, -0x2c, -0x31, 0xd, 0x3a, 0x2a, -0xa, -0x28, -0x17, -0x1a, -0x15, 0xf, 0x3c, 0x3b, 0xd, -0x3a, -0x31, -0x11, 0x24, 0x4, 0x1e, 0x28, -0xb, -0x8, 0x2, -0x18, 0x0, -0x26, -0x45, -0x2d, -0x5, -0x2f, -0x45, 0x10, -0x28,
-0x4e, -0x26, -0x32, -0x15, -0x1c, -0x45, -0x43, 0xa, -0x22, -0x3d, 0x5, 0x32, 0x9, -0x18, 0xa, 0x6, -0x31, -0x8, -0x1d, -0x8, -0xf, -0x16, 0x19, 0xc, -0x17, 0x5, 0x0, -0xd, -0x6, -0xf, 0x29, -0xb, -0x1a, 0x19, -0x1, -0x5, 0x2, -0x19, 0x6, 0x2c, 0xc, 0x25, 0x44, -0x7, 0x12, 0x11, -0x30, 0xf, 0x3, -0x29, -0x15, -0xd, -0x15, -0x23, -0x1d, -0x22, -0x5, -0x17, -0x6, -0x4, -0x5, -0x10, -0x25, -0x4, -0x6, 0x8, 0x3, -0x29, 0x7, -0x1, -0x27, 0x0, 0x7, -0x16, -0x8, 0x3, -0x1, -0xc, -0xa, -0xb, -0x21, -0x39, -0x20, -0x12, -0x12, 0x25, 0x1c, -0x1, 0x11, 0x6, -0x19, 0x14, 0x4, -0x7, 0x12, -0xb, -0x14, 0x1, -0x5, -0x8,
-0xd, -0x29, -0x2a, 0x23, 0x9, -0x19, 0x37, 0x1a, -0xd, -0x3c, -0x3a, -0x10, -0x3, -0x2e, -0x25, 0x1b, 0xb, -0x24, -0x20, -0x29, -0x9, 0x16, -0xb, -0x1e, 0x31, 0x18, -0x1b, 0xf, -0xa, 0xc, 0x0, -0x1e, 0x15, 0x1, -0x15, 0xe, -0xd, 0xd, -0x1d, -0x8, 0x2b, -0x22, -0x15, 0xe, -0xf, 0x1, -0x2b, 0x37, 0x6, -0x6b, 0x57, 0x11, -0x2b, 0x1a, -0x2, 0x8, 0x7, -0x1a, 0x8, 0x14, -0x1a, 0x7, 0x4, -0x7, 0x4d, -0x54, -0xe, 0x58, -0x5e, 0x1, 0x39, -0x28, 0x0, 0xb, -0xb, -0x9, 0x13, -0x19, -0x3, 0x4, -0x2, -0x2, -0x2d, 0x17, 0x11, -0x38, 0x36, 0xa, -0x15, 0x18, -0x9, 0xf, 0x0, -0x2, 0x15, -0x15, 0x4, 0x10, -0x12, -0x1,
-0x10, 0x14, 0x4, -0x2b, 0x1e, -0x3, -0x19, 0x1e, 0x7, 0x2, 0x6, 0x17, -0x7, -0x5, -0x4, -0x20, -0x7, 0x7, -0x20, 0x1d, 0xb, -0x46, 0x26, 0x17, -0x27, 0x18, 0x19, -0x2d, 0x15, 0x1d, -0x2d, 0x13, 0x8, -0x8, -0x4, -0xa, 0x9, 0x5, -0xd, 0xa, -0x5, -0xf, -0x4, -0x4, 0x4, -0x5, -0x14, 0xd, -0x6, -0xa, -0x2, -0x8, 0x1, 0x4, 0x9, -0x1d, 0x2, 0x20, -0x20, -0x5, 0x8, 0x0, -0x2, -0x2, 0x4, -0x3, 0x14, -0x2, -0xa, 0x1, -0xa, -0x26, -0x24, 0xb, -0xe, 0x26, 0x31, -0x18, 0x1b, 0x8, 0xc, 0x1f, 0xa, 0x3a, 0x3a, 0x14, 0x19, 0x7, 0x7, -0x1a, -0x18, 0x0, -0x16, -0x17, -0x2, -0x7, -0x3, -0x12, 0x1e, 0x12,
-0x10, 0xa, -0x15, -0x10, -0x10, -0x30, -0xe, 0x8, 0xb, -0x14, 0x28, 0xd, -0x32, 0x18, -0x8, -0x13, -0x15, -0x14, 0x17, -0x24, 0xc, 0x1e, -0x10, 0x18, 0x20, 0x29, -0x1, -0x33, -0x2, -0x16, -0x5, -0x12, -0xa, 0x13, -0x3, 0x21, 0xb, 0x7, 0x21, -0x16, -0x1, 0x11, -0x1f, 0xa, -0x36, -0xb, -0x14, -0x12, 0xe, -0x22, 0x10, 0x16, -0x3a, -0x21, 0xf, -0x27, 0x11, 0x34, -0x14, 0x18, 0x13, 0x5, 0x5, -0xc, 0x1f, 0x7, -0x25, -0x1, -0x27, -0x1f, 0x27, 0x2c, 0x7, 0x31, -0xb, -0x56, -0x19, -0x2f, -0x2d, 0x5e, 0x1a, -0x41, 0x39, -0x2d, -0x4b, -0x19, -0x36, 0xd, -0x5, -0x29, -0x1b, -0x6, -0x20, -0xc, -0x7, -0xc, -0x1, 0x9, -0x8, -0x2a,
0x7, 0x1d, -0x1e, 0xb, 0x12, -0x6, -0x1f, -0x33, 0x33, -0x26, 0x1f, 0x44, 0x1, 0x2b, -0x8, 0x28, 0x4, 0x4, 0x22, 0x7, -0xe, -0xb, -0x18, -0x3b, 0x29, 0x2e, -0x3, 0x34, 0x43, 0x1b, 0x9, -0x1, -0x16, 0x27, 0x22, 0xd, 0x28, 0x28, 0xb, 0x7, 0xa, -0x16, 0x12, -0x1b, 0x7, 0x20, -0x30, -0x2d, -0x1c, -0x44, -0x34, -0x6, -0x2d, -0x2b, -0x4, -0x24, -0x24, 0x3, -0x8, -0x8, 0x1a, 0x16, 0x3c, -0xd, -0x2e, -0x12, 0x22, -0x13, -0x29, 0x17, 0x2, -0x1b, 0x28, 0xf, 0xd, 0xe, 0x5, -0x9, -0x20, -0xc, -0x4, -0x26, -0x3c, -0x3a, 0x1a, -0x1, 0x1e, 0x11, -0xe, -0x2c, -0x3, -0x2d, -0x38, 0x7, -0x1c, -0x9, -0x7, -0x10, -0x2e, 0x3a,
0x31, 0x2f, 0x1, 0x13, 0x13, -0x5, 0xc, -0x17, -0xf, 0xc, 0x13, -0x27, -0x1f, -0xf, 0x30, 0x2e, 0x6, 0x1d, 0x9, -0x17, 0x21, 0xc, -0x29, -0x4, -0xb, 0x1, -0x12, -0x24, -0x27, 0x2e, 0x3, -0xc, -0xb, -0x26, -0x1f, 0x8, -0x2a, -0x38, 0x25, -0x2, -0x20, 0x9, -0x2e, -0x28, 0x15, -0x22, -0x26, -0x3, -0x26, -0x50, 0xb, -0x11, -0xe, -0xa, -0x21, -0x2a, 0x3, -0x11, -0x28, -0x3, -0x16, -0x21, -0x4, -0x1f, -0x19, 0x0, -0xa, -0x9, -0x9, -0x1, 0xd, -0xd, -0x18, -0x4, -0x5, -0x13, -0xf, -0xe, 0x3, 0x1d, -0x27, -0x12, 0x6, -0x1a, -0x24, -0x22, -0x13, -0x40, -0x28, -0x4, -0x38, -0x24, 0x9, -0x15, 0x11, -0x4, -0x12, -0x11, 0x7, -0x7,
-0x11, 0x7, 0x9, 0xb, -0xf, 0x29, 0x2b, 0x0, 0x2a, 0x24, 0x2, 0xe, 0x18, -0x2, -0x15, -0x17, 0x1, -0x5, -0x12, -0x1, 0x12, 0xd, -0x7, 0x2, -0x5, -0x4, -0x5, -0x12, -0x9, 0x4, -0x1, -0x9, -0x8, -0x1d, 0xe, 0x17, -0x1b, 0x33, 0x2a, 0xb, -0xe, 0xd, 0xb, -0x13, -0x9, 0x1, 0x4, -0xb, -0x7, -0x11, -0x2a, -0x2c, 0x11, -0x9, -0x1c, 0x1f, 0x6, -0xf, 0x32, 0x22, 0x15, 0xb, 0x8, 0xd, -0x5, -0x4, 0x13, 0x9, 0x19, 0x1a, 0x1d, 0x25, 0x9, -0x3, 0x10, -0x8, 0x15, 0x2b, 0x15, 0x11, 0x1b, 0x12, -0xd, -0x4, 0xb, 0xd, 0x35, 0x3b, -0xf, 0x11, 0x17, -0x1c, -0xa, -0xc, 0x6, 0x10, -0x3, -0x6, 0x1d, 0x16,
-0x5, 0x1, 0x3, -0x6, -0x6, -0x2, 0xd, 0x6, -0x8, -0x4, -0x16, -0x6, -0x2, 0x7, 0x1b, 0x8, 0xd, 0x1c, 0x14, 0x25, 0x12, -0x2, 0x13, 0x16, 0x11, 0x1d, 0x12, 0x3, 0xb, 0xf, 0xa, 0x5, 0x5, 0x14, 0x18, 0x18, 0x6, 0x0, -0x18, -0xb, 0x10, 0x23, -0xc, 0x7, 0x10, -0xc, -0x3, -0x2, -0x24, -0x4a, -0x36, -0x5d, -0x62, -0x2b, -0x5e, -0x3e, 0x0, -0x22, -0xb, 0x0, -0x11, 0xd, 0xc, -0x8, -0x14, -0x8, -0x18, -0x4e, -0x2f, -0x14, -0x18, -0x4, -0xd, -0xd, 0xf, 0x12, 0x13, 0x2, -0x6, -0xe, -0x9, -0xc, -0x16, 0xc, 0xc, 0x3c, 0x29, -0x8, 0x12, 0x9, 0xe, 0x18, 0x3, -0x8, 0x4, 0x1, -0x6, -0x13, 0x2, 0xe,
0xe, 0x16, -0x12, -0x9, -0x11, -0x10, -0xb, -0xa, -0x3, -0xc, 0x2, -0x10, -0xa, 0x6, -0xe, -0x11, 0x9, -0x3, 0x15, 0x2c, -0x5, -0x19, -0xb, -0x3, -0xb, -0x3, -0x7, -0xf, -0xd, 0x21, 0x2, -0x6, 0x22, 0xf, 0x5, 0xf, 0xc, 0x11, 0xa, -0x13, -0x9, 0x7, -0x16, 0x3, 0x0, -0x17, 0x2, 0x21, -0x3, -0x13, -0xc, 0x14, 0x25, 0x38, 0x1a, 0xd, 0x2, 0x12, -0x30, 0x7, -0x26, -0x1a, 0x3, -0xc, 0x17, 0x17, -0x24, -0x1, 0x2, -0x15, 0x14, 0x4, -0x3, 0xc, -0xb, 0xd, 0x9, -0xb, 0x20, 0x42, -0x8, 0xc, -0xb, 0x5, 0x3, 0xd, -0x18, 0xe, -0x12, -0xa, 0x6, 0x2, 0xe, -0x8, 0x9, 0x3c, 0x2a, 0x4, -0x14, -0x18,
0xc, -0xa, 0x19, 0x35, -0x13, 0x3, 0x16, 0x1a, 0x16, 0xb, 0xf, 0xd, -0x25, -0x1f, -0x19, -0xf, 0x77, 0x10, 0x28, 0x29, -0x24, 0x2, -0x37, -0x1a, 0x2, -0x16, -0x37, 0x1, 0x2, 0xf, -0xb, 0x1b, 0x15, 0x2, -0x6, -0x6, -0x8, 0xa, 0x5, 0x3, 0x3, 0x11, -0x1e, 0x4, 0x18, 0x29, -0x19, 0x13, 0x2a, -0x11, -0x26, 0x2, 0x0, 0x30, -0x49, 0x47, -0x11, 0x13, -0x1c, -0xe, -0x12, 0x10, -0x1e, 0x11, 0x2c, -0x24, -0x8, -0x16, 0xa, 0x40, 0x2f, 0xc, 0x0, 0x21, -0x11, -0x5, 0x15, 0xd, -0xc, -0x18, 0xf, -0x5, 0x4, -0x2, 0x10, -0x10, -0x1, -0x1a, 0xc, 0x1b, -0x10, 0x16, -0x8, 0x6, -0xc, 0x3, -0x22, 0x10, -0x22, -0x2d,
0x24, 0x17, 0x21, 0xd, 0x6, 0x1b, 0xb, -0x23, -0x31, -0x21, -0x11, -0x12, -0x1e, 0xa, -0xc, 0x20, -0x32, -0xa, -0x20, 0x16, -0x27, -0x34, -0x21, -0x65, 0xe, 0x19, -0x29, -0x1d, -0x13, 0x3e, -0x2, -0x9, 0x2a, -0x14, 0x30, -0x3a, -0x2, 0x37, -0x42, 0xf, 0x14, 0x8, -0x12, -0x11, 0x1f, -0x2b, 0x9, -0x3, -0x50, -0x5, 0xd, 0x13, 0x11, -0x9, 0x4, -0x12, 0xb, 0x4, 0xa, 0x16, -0x15, 0x33, 0x1, -0x19, 0x1a, -0xf, 0x7, -0x14, -0x14, 0xc, -0x22, -0x11, -0x3, 0x3, 0x2d, -0xe, -0x6, -0x2d, -0x19, -0x35, 0x24, 0x2f, -0xa, 0x9, -0xb, 0xf, 0x12, 0x14, 0x18, 0x24, 0x34, 0x18, -0x24, 0x35, -0x11, 0x1a, 0x13, 0x20, 0x0, 0x70,
-0x4, 0x11, 0x0, 0x4, 0x8, 0x6, 0x9, 0x2, -0x15, 0x13, -0x4, 0x1d, 0x2a, 0x20, -0x10, -0x6, 0x4, -0x4, 0x1d, 0x3e, -0x5, 0x5, 0x21, -0x13, -0x28, -0x19, 0x10, 0x11, 0x19, -0x7, 0x3b, 0x2, -0x7, -0x31, 0x1c, 0x1e, 0x4, 0xd, 0x63, 0x16, 0x1b, 0xd, 0x17, 0x15, 0x2, -0x23, 0x7, -0xf, 0xb, 0x3, 0xc, -0x35, 0xe, -0x22, -0x1a, -0x3, 0x5, 0x32, 0x35, 0x1c, -0x1e, 0x15, -0x16, 0x9, -0x6, -0x17, -0x3, -0x26, 0x9, 0x11, 0x48, 0x7, -0x21, -0x18, 0x3, 0x33, -0x15, -0x4, -0x28, 0xa, 0x14, -0xa, 0x27, -0x8, 0xb, -0x8, 0xd, 0x1a, 0xb, 0x1f, 0x0, 0x18, 0x18, -0x1b, 0xe, -0x9, -0x4, 0xa, 0x8, -0x17,
-0x14, -0x23, 0xb, -0xc, 0x1b, 0x3e, 0x6, 0x7, 0x35, 0x5, -0x1e, -0x5, -0xc, -0x21, -0x1e, 0x19, 0x6, 0x7, 0x1c, -0x10, 0x14, -0x12, 0x13, 0x4, -0x25, -0x19, 0x2b, 0xd, 0x5, -0x4, -0x3, 0xb, 0x14, -0x10, -0x1f, 0x1b, -0x4, 0x3a, 0x20, 0x5, 0xe, 0x1b, -0xd, 0x2c, 0x4, 0x1d, 0x1f, 0x35, 0x24, 0x2f, 0x10, -0x6, 0xd, -0x22, -0x1d, -0xf, -0x18, 0x12, -0xa, 0x3f, -0x5, 0x3, 0x6, -0x21, -0x13, 0x12, 0x19, 0x1e, 0x2, 0x5, -0x18, -0x30, 0x1e, -0x2, -0x1c, -0x5, 0x17, 0x6, -0xf, 0x1b, -0x7, -0x8, -0x33, 0x15, -0xe, 0xf, 0x41, -0x2b, -0x2a, 0x4, 0x1b, 0x3c, -0x8, 0x34, -0xd, 0x3, -0x1b, 0x10, 0x17, 0x21,
0x7f, -0x50, 0x4, 0x23, -0x11, 0x13, -0x2a, -0x27, -0x1, 0x4, 0x3d, 0x12, -0x1, -0xf, -0x9, -0x1b, -0xc, -0x8, -0x9, -0x18, 0x16, -0x4, 0x3, -0x26, -0x3, 0x1, 0x25, 0x5, 0xd, -0x9, -0x8, -0xc, -0x1b, -0x1b, 0xc, 0x1b, -0x19, -0x16, 0x12, -0x1e, 0x1b, 0x16, 0xb, -0x9, 0x14, 0x1d, -0xa, -0x28, 0x19, -0xf, -0x9, -0x40, 0x3, 0x0, -0x1d, 0xd, 0xd, 0x16, 0x4, -0x2b, 0xf, 0xd, -0x21, 0x24, 0x1e, -0x14, 0x28, 0x20, -0x13, -0xb, 0xc, -0x22, -0x1d, 0x10, -0x18, -0x20, -0x10, 0x1b, 0x33, 0x16, 0x12, 0x23, 0x6, -0xb, 0x14, 0x2, -0x1, 0xb, 0x2c, -0x39, -0x16, 0x18, -0x16, 0x4, 0x1c, -0xd, -0x21, 0x1, -0x5, -0x28,
-0x37, 0x27, 0x1f, -0x19, -0x19, -0x1a, -0xa, -0x19, 0xf, 0xc, -0x1e, -0x1e, -0xb, 0x9, 0x18, -0xe, -0xc, 0x13, 0x3, -0x6, 0x5, 0x11, 0x20, -0x18, -0x33, 0x4c, -0x3, -0x28, 0x20, -0x15, -0x23, 0x3, -0x14, -0x31, 0xa, 0x7, -0x3, -0x16, -0x1a, -0x8, 0x3, 0x2, 0x8, -0x18, 0x6, 0x2e, -0x25, -0x13, 0x20, -0x6, -0x11, -0xd, -0x3, 0x0, -0x1, 0x8, 0xe, 0xc, 0x3, 0x0, -0x17, -0x8, -0xe, 0x9, -0xc, 0xd, 0x17, 0x2, 0x3, 0xc, -0x7, 0x1, 0xa, -0x17, 0x2, 0x18, -0x2b, 0x2, 0xf, -0x15, 0x9, 0x22, -0x13, 0x13, 0x24, 0x17, -0x18, -0x22, 0x2a, -0xd, -0x39, 0x23, -0x7, -0x46, 0x10, -0x12, -0x27, 0x18, -0x10, -0x11,
-0x3, -0x17, 0x3, -0x13, 0xe, -0x2, -0xb, 0xa, 0x0, -0x15, 0x1, 0x10, -0xf, -0x1d, 0x1c, -0x13, -0x2e, 0xb, -0x10, -0x28, 0xe, -0xb, -0x13, -0x2, -0x6, -0x3, 0x9, 0x0, -0x6, -0xa, -0x12, -0x11, -0xf, 0x3, 0x2, 0x9, -0x1, 0x1a, 0x13, -0x14, -0x7, -0x17, 0x6, -0x19, 0x1, 0x1, -0x1f, -0x4, -0x20, -0x1f, 0x3, 0x5, 0x6, 0x10, 0x8, 0xe, 0x1b, -0x28, -0x17, 0x10, -0x27, -0x10, 0x4, -0x23, -0x30, 0x9, -0x13, 0x8, 0xc, 0x1, 0x1, 0x7, -0x3, -0xa, 0x4, -0x25, -0x14, -0x8, -0x27, 0x6, 0x39, -0x1, 0x6, 0x1a, 0x1d, -0x7, -0xd, 0x1c, -0x11, -0x1c, 0x7, 0x3, -0x9, 0x21, 0x20, -0x14, 0x10, 0x1a, 0x1, 0x1e,
-0x9, -0x2, -0x14, 0x4, 0x9, -0x20, -0x9, 0x5, -0x24, -0x18, -0x6, -0x7, -0x9, 0x12, -0x2, -0xd, 0x13, -0x13, -0xf, 0xf, -0xd, -0xa, 0x0, 0x27, 0x2e, 0x1f, 0x14, 0x1, 0x12, -0xf, -0x13, -0xd, -0x5, -0x6, -0x7, -0x1c, -0x2, 0x1d, -0x2a, 0x1, 0x29, -0x2d, 0xa, 0x17, -0x14, 0x9, -0x3, 0x15, -0xb, -0xd, -0xc, 0x2, -0x37, 0x21, 0x19, -0x26, 0x27, 0x1f, -0x1c, 0x29, 0x13, -0x50, 0x13, 0x13, -0x32, 0x15, 0xa, -0x5, 0x8, 0x14, -0x7, 0xe, 0x28, 0x16, 0x3, 0x17, 0x9, 0x6, 0x17, 0x0, 0x9, 0xf, -0x3, 0x8, 0x9, 0x5, 0x22, 0x1d, -0x1f, 0xb, -0x1, -0x8, -0x20, -0x3d, -0x29, 0xe, -0xb, -0x8, 0x0, 0x20,
0xe, -0x2, -0x12, -0x16, 0x11, 0x17, 0x0, 0xd, 0x20, 0x18, -0x32, 0xb, 0x15, -0x2e, 0x17, 0x26, -0x11, 0xf, -0xb, -0x2, 0x12, 0x14, 0x0, -0x1, 0xd, 0x2, -0x18, 0x9, -0x1f, -0x3, 0x16, -0xa, -0x6, -0x3, 0x3, -0x2, 0x10, -0x1b, 0x9, -0xc, -0xd, 0x10, -0xc, 0x8, 0x2, -0x13, 0xc, -0x2, 0xf, -0x4, -0x23, 0xc, -0x1, -0x18, -0xf, 0x2d, 0x13, -0x13, 0x30, 0x15, -0x35, 0x12, 0x1b, -0x1f, 0x20, -0x3, 0x3, 0x17, 0x3, -0xe, 0x12, 0xf, -0x15, -0x1c, 0x17, 0x35, -0x2f, 0xf, 0x53, -0x1d, 0x15, 0x24, -0x8, 0x13, 0x4, -0x5, 0x1b, -0xd, -0x10, 0x2, -0xf, 0x10, -0x27, -0x1c, 0x1c, -0x17, -0x40, 0x19, 0x1b, -0x23,
-0xa, 0x6, -0x5, -0x4, -0x8, 0xc, -0x1a, -0x24, -0x7, -0xc, -0x11, 0x3, -0x12, -0x2, -0x4, 0x8, 0xd, 0x2, -0x5, 0x1f, -0x20, -0x1, 0x1, -0x19, -0x1, 0x2, -0x9, -0x14, -0x1a, -0xa, 0xb, -0xd, -0x22, 0x13, 0x1a, -0xa, -0x4, -0x5, -0x6, 0xb, -0x8, -0xe, 0x4, -0x9, -0x20, 0xb, 0x1d, 0xf, 0x2, -0x8, -0x7, -0x2, -0x1b, -0x5, -0x10, -0x21, 0xb, 0x2, 0xb, 0x4, 0x2, 0x17, -0x8, -0x14, -0x7, -0xb, -0x22, 0x16, 0x1b, -0x3, 0xe, -0x1, -0x9, 0x15, 0x1c, 0x0, 0x19, 0xb, 0x5, 0x17, -0x7, -0x14, 0x11, 0x10, -0x35, 0x2e, 0x3f, -0x2b, -0x2, 0x4b, 0x36, -0xb, -0x11, 0x38, -0x1d, -0x38, 0x1f, -0x8, -0x2b, -0x8,
0xd, -0x25, 0x5, 0x8, -0x1d, 0xd, 0x0, -0xf, -0x1, 0x11, -0x6, -0xd, 0x20, 0x9, -0xa, -0x3, 0x9, -0x16, 0x1b, -0x2, 0x15, -0x2, -0x24, 0x1a, 0x9, -0x2d, -0xf, 0x3, 0x32, -0x24, 0x14, 0x25, -0x1d, -0xf, -0x9, 0x1b, 0x1e, 0x17, 0xf, 0x12, 0x4, 0xd, 0x8, 0x1, -0x10, -0x12, 0xe, 0x0, -0xc, -0x9, -0x3, 0x1, -0x7, 0x13, 0x12, 0x3, 0x16, 0x16, 0x8, 0x11, 0x5, -0xb, -0x1d, -0x13, -0x2, -0x8, -0x14, -0x12, -0x13, -0xe, -0x10, -0x24, -0x9, 0x1, -0x19, -0x18, -0x19, -0xb, -0x1c, -0x27, 0x24, 0x1d, 0xc, 0x1b, 0x28, 0x23, 0x1c, 0x17, 0x10, 0xf, -0x5, -0xa, 0x1a, 0x10, 0x5, -0x5, -0x3, 0x0, 0x4, 0x0,
-0x18, 0x10, 0xa, -0x2, -0x5, -0x2, -0xf, -0x28, 0x4, 0x4, -0x14, -0xc, -0x12, 0x2, 0xa, 0x18, -0x4, -0x6, -0xb, 0x2, -0x6, 0x0, -0x2, 0xb, 0x7, -0x6, -0x2, 0x0, -0xc, -0x2, -0x7, 0x5, -0x4, -0x5, 0xa, 0xe, 0x9, 0x19, 0x28, 0x18, -0x4, -0x6, 0x1, -0x9, 0xe, 0xe, -0xe, 0x6, 0x3, -0x9, 0x3, 0x8, -0xf, -0x2, -0x2, -0x5, -0xe, -0x10, 0x2, -0x4, -0x6, -0x1f, 0x2, -0x7, -0x2, 0x2, 0x1, -0x16, -0x12, -0xf, -0xd, 0x5, -0x7, 0x8, 0xa, -0xe, 0x5, 0xe, -0xc, 0xc, 0xb, -0x4, 0x14, 0x15, 0x10, -0x5, 0x5, 0xd, -0x10, -0x3, -0xc, -0xe, -0x5, -0x1b, -0x1b, 0xc, -0x1d, 0xf, 0x15, 0x7,
0x13, 0x17, 0x12, -0x3, -0x8, 0xa, -0x1c, -0x1, 0x5, -0x10, -0x1e, -0xe, -0xd, -0xa, 0x4, 0xe, 0xf, 0x7, 0xb, 0x2a, 0x1e, -0xc, 0xc, -0x2, -0xf, -0xe, -0xf, -0x4, -0x11, 0x9, -0x1, -0x13, -0x9, -0x10, -0xe, 0x2, -0x18, -0x1f, -0xf, -0xc, -0x15, -0x6, -0xa, -0x9, 0x10, 0x13, 0x9, 0x8, 0x2, 0x4, 0xc, -0xb, 0x8, -0xd, -0x7, 0x7, 0x1, -0x8, 0xa, 0x4, -0x1f, -0x1b, -0xb, -0x1, -0xd, -0xc, -0x8, -0x9, -0xe, 0xf, 0x1b, -0x4, 0x19, 0x2a, 0x27, 0x3, 0x11, 0x1f, -0x12, -0x2, 0xd, -0xa, -0xc, -0x2, 0x7, 0x2, -0x7, -0x22, -0x2a, -0x10, -0x16, -0x2d, -0x23, 0x0, -0x17, -0x3, -0xc, 0xf, 0xe, 0x7,
0xd, 0x10, 0x3, 0xa, -0x6, 0x6, -0x8, -0x2, -0x4, 0x2, 0xe, -0xc, 0x1, 0xa, -0x28, -0x7, 0x2, -0x27, -0x11, -0xd, -0x14, -0xa, -0x1c, -0x1d, -0x1a, -0xc, -0x17, -0x9, -0x5, 0x14, 0xd, 0x12, 0x9, 0x9, -0xa, 0xd, 0x4, 0x5, 0xf, 0xd, 0xf, 0x1f, 0x4, 0x8, 0x9, -0xc, 0x1, -0x20, -0x1f, 0x7, -0xf, -0x12, -0xf, 0x12, -0x1, -0xe, 0x26, 0x16, 0x10, -0x11, 0x1, -0x1, -0x6, 0x8, 0x8, 0x4, 0x10, 0x12, 0x1a, -0x2, 0xf, 0x10, 0x3, -0x4, 0xb, 0x4, -0x9, 0x0, -0x1, -0x10, -0x16, -0x9, -0xb, -0x3, -0x11, -0x1c, 0x4, 0x8, 0x16, -0x5, 0x13, 0x11, 0x1, 0x5, 0x0, -0x8, -0xf, -0x1, -0x2, -0xb,
-0x13, -0x6, -0xc, -0xd, 0x2, -0xd, 0x0, 0x0, -0x12, -0xc, 0x2, -0x19, 0x8, 0x18, 0x3, 0x0, 0x15, 0xc, -0x6, 0x8, 0x11, -0x8, -0x15, -0x1c, 0x1, 0x6, 0xc, 0x1b, -0x10, -0xc, -0x3, -0xa, 0x1, 0x3, 0x1b, 0x25, 0x14, 0x30, 0x25, 0x1a, 0x23, 0x1c, 0xd, 0x10, 0x2, 0xd, 0x8, -0x3, 0xf, 0xa, 0xa, -0x1, 0x6, 0xe, -0xe, -0x11, 0x1, -0x10, 0x2, -0x7, -0x8, 0x1, -0x8, -0x25, -0xf, -0xe, -0x20, 0x13, 0x12, 0xe, 0xf, 0xf, 0x14, 0x2, -0x7, 0x2, 0x11, -0x10, -0xd, 0x17, 0x4, -0x1a, -0x15, -0x1a, -0x22, -0x7, -0xc, -0x19, 0x5, -0x1, -0xa, -0x3, -0x1, -0x1, 0x35, 0x15, 0x5, 0x1a, 0xb, -0x1c,
-0x5, -0xf, -0x1a, 0x1b, 0x12, 0x0, 0x2, -0x5, 0x2, -0x1, -0x4, 0x4, 0x3, -0x9, 0xa, 0x7, -0xf, -0x13, 0x11, 0x5, -0x1, 0xa, -0x17, 0x1f, -0x7, -0x16, 0x9, 0x8, -0xf, -0x1b, 0xa, -0x6, 0x8, 0x10, 0x1, 0x15, 0xb, 0xe, 0x7, -0x34, -0x10, 0x13, -0x2c, -0x7, 0x15, -0x1d, 0x4, 0x10, 0xf, 0x8, -0x3, 0xe, 0x0, -0x8, -0x10, -0xa, -0xb, -0xb, -0x5, 0x1, -0x9, 0x8, 0x12, 0xc, 0x1, 0xa, 0x5, -0x1, -0xa, 0xf, 0x1, 0x8, 0x17, 0x4, 0x10, 0x10, 0x1c, 0x10, 0x1, 0x5, 0x3, -0xf, -0x3, 0xc, 0x9, -0x2, -0x16, -0x4, -0x12, -0xe, 0x12, -0x9, -0x9, 0x8, 0x4, 0x8, 0xe, -0x2, -0x8, 0x5,
-0x4, -0x2, -0x23, -0x2e, -0x17, -0x3, 0x9, 0x3, 0xb, 0x16, 0x11, -0x5, 0x5, -0x19, 0xf, -0x3d, 0xd, 0xc, -0xe, 0x14, 0x5, -0x17, 0x0, 0x17, -0x2b, 0x2, 0x10, -0x2, -0x2, 0xf, 0x3, -0x1d, 0x2e, -0x15, 0x9, -0x23, -0xa, -0x13, -0x23, -0xe, 0x1, 0x3, -0x9, 0x2b, 0x18, 0xf, 0x6, -0x6, 0x17, 0xa, -0x8, 0x3, 0x37, -0xd, 0x14, 0x3, 0x20, -0x1b, -0x11, 0x18, 0x2, -0x22, -0x13, -0x1a, -0x25, 0x1d, 0x32, -0x6, -0x1, -0x12, -0x2, -0xe, -0x1a, -0x3, -0x16, 0x12, 0x18, -0xa, 0x42, 0x17, 0x1, 0xd, -0x1a, -0x2c, -0x8, 0x30, -0x29, -0x7, 0x15, -0xc, -0x1, -0x19, -0x15, 0x21, -0x1f, -0x16, -0x5, -0x10, 0x1, -0x7,
-0x5, -0x15, -0x1a, 0xb, -0xe, 0x11, 0x1, -0xa, -0x1f, -0x1e, 0x2d, -0x1c, -0x22, 0x2a, -0x2a, -0x28, 0x12, -0x12, 0xe, 0xa, -0x1b, -0x3, 0x1, -0x1b, 0x5, -0x8, -0x2, -0xf, 0x9, -0x8, 0x9, 0x18, -0x5, 0x15, 0x1c, 0x1e, 0x13, 0x1, 0x2d, 0x2, 0x2, 0x3d, -0x5, 0x0, 0xc, -0x11, -0x16, 0x1f, 0xa, 0x4, 0x49, -0x8, 0xc, 0xd, -0x1b, 0x2d, -0x1c, -0x1, 0x34, -0x14, -0x8, -0x8, -0x14, -0x7, -0x9, -0x2, 0x4, 0x1a, -0x2b, 0xb, -0x19, -0x26, -0xa, -0x7, 0x2b, -0x3b, 0x15, 0x14, -0x10, -0x8, -0x9, -0x2, 0x3, 0x19, 0xc, -0x17, 0x1d, 0xd, -0x17, 0x2, -0x23, 0x2e, 0x6, -0x20, 0x38, 0x6, -0x33, 0x1d, 0x5, -0x18,
-0x8, -0xc, -0x2, -0x45, -0x16, 0x22, -0x11, 0x18, 0x16, -0x1a, 0x13, 0x2e, -0xf, -0x16, 0x18, -0xa, -0xa, -0x1a, 0x3a, 0x3, -0x12, 0x8, -0x17, -0x1e, -0x10, -0x10, -0xd, -0x8, 0xa, -0x26, -0x28, -0x21, -0x19, 0xa, 0xa, 0x20, 0x17, 0x1a, 0xb, 0x16, 0x1c, 0x7, -0x3, -0xb, -0x6, 0x26, 0x10, -0x12, 0x23, 0xf, -0x27, 0x1b, -0xa, -0x1b, -0x1, -0x15, 0x0, -0x1, -0x18, 0x0, 0xf, -0x4, 0x0, -0x2a, -0x13, 0x11, -0x1b, -0x19, 0x25, -0x12, -0xb, 0x0, -0x1, 0x31, -0x12, 0x3c, 0x3c, 0x1, 0x7, 0xc, -0x1b, -0x3, -0x17, -0x22, -0x17, -0x16, -0x11, -0x1d, -0x2e, -0x16, -0xf, 0xc, -0xf, -0x35, -0x34, 0xe, -0x7, 0x7, 0x27, 0x7,
-0x1, 0x1b, -0x18, 0xb, 0x2a, -0x27, 0x17, 0xc, -0x12, 0x0, 0x15, -0x13, 0x3, 0x17, -0x1a, -0x8, -0x6, 0x2d, 0x15, 0x5, 0x4, -0xe, 0x4, -0x13, 0x9, -0x6, -0x10, -0xd, 0x3, -0x17, 0x4, 0xe, -0x2a, -0x13, -0xa, -0x22, -0x28, -0x1a, -0x30, -0x4, 0x0, -0x10, 0x39, 0x39, -0x5, 0xd, 0x11, 0x17, -0x8, -0x1a, 0x25, -0x4, -0x24, 0x6, -0xc, -0x15, 0x1e, 0xf, -0x6, 0x17, -0x4, 0x3, 0x9, 0x3, -0x2e, 0x25, 0x21, -0x39, 0x24, 0x2, -0xe, -0x1b, -0xd, -0x14, -0x8, 0x12, 0x14, -0x4, -0x9, 0x1c, -0x1b, 0x4, -0x3, -0x12, 0x6, -0x9, -0x19, -0x2, -0x4, 0x2f, 0xc, 0x6, 0x2d, 0x1e, -0x3, 0x2b, 0xb, 0x23, 0x26, 0x16,
0x28, -0xa, -0xa, -0xd, -0xa, -0x1d, -0x28, -0x2, 0x12, 0x4, 0x3, 0x1a, 0x6, -0x29, -0x15, -0x12, 0xc, 0x6, 0x1c, -0x13, -0x8, 0x20, -0x3, 0x5, 0x3, 0x20, 0x7, -0x1c, 0x2c, 0x15, -0x36, 0x29, 0x10, -0x7, -0x5, 0x6, -0x20, -0x8, 0x16, -0x1d, -0x5, -0x17, -0x1d, -0xf, 0x22, 0x31, -0x1a, 0x23, 0x1e, -0xd, 0x2, -0x18, -0xa, -0x20, -0x15, -0x2, -0x16, 0x3, -0x12, 0xd, 0x1a, 0x1, -0x8, -0x12, 0x17, 0x2, -0x20, 0x11, -0x7, -0x20, 0xc, 0x17, -0x1b, -0x11, -0x9, -0x13, -0x5, 0x1, 0x10, 0x6, 0x8, 0x4, -0x7, -0x9, 0x4, 0x5, -0x14, -0x12, -0x10, -0xa, 0x31, -0x6, 0x8, 0x1a, 0x0, -0x3, -0x5, -0x41, -0xa, 0xb,
-0x1e, -0x13, 0x5, 0xb, 0x26, 0x1e, 0xa, 0x9, 0x3, 0x31, 0x30, -0x6, 0x1c, 0x15, -0xf, -0x3, -0xa, -0x21, 0x23, -0x3, -0x25, 0x19, -0xe, -0x12, 0x1b, 0x6, -0x4, 0x1d, 0xf, 0x7, 0x9, 0xa, 0x4, -0x5, -0x24, -0x1c, 0x13, -0x8, -0x1e, -0x8, -0xe, -0xb, -0x14, 0x9, 0x13, -0x13, 0x4, 0x1e, -0x1a, -0x4, -0x8, -0x8, 0xb, 0x2, -0x9, 0x14, 0x1c, -0x12, 0x14, 0x11, -0x3, -0x1b, -0x1e, -0x8, -0x10, -0xa, 0x5, 0x15, 0x21, 0x39, 0x1e, -0xc, 0x1, -0x3, -0x11, 0x3, -0x2, 0x10, -0x1a, -0x12, -0x18, -0x8, 0xc, 0x29, 0x7, 0x11, 0x28, -0x11, 0x15, 0x13, -0x7, 0x0, 0xb, 0x13, 0x11, -0x6, 0x0, -0x14, -0x18, 0x16,
0x11, -0xb, 0x3, 0x6, -0xc, -0x9, -0x6, -0xf, -0xb, 0x12, -0xa, -0x5, 0xc, 0x8, -0x16, -0x8, -0x4, 0x1e, 0x21, 0x9, 0x1b, 0x28, 0x1b, -0x11, -0x31, -0x3f, -0x5, -0x3, 0xb, -0x11, -0xc, 0xd, -0x10, -0xf, -0x20, 0x22, 0x16, -0xc, 0xb, 0x14, -0x22, 0x13, 0x12, 0x5, 0xa, -0xa, 0x2, -0xd, -0x6, -0xc, -0x33, -0x33, -0x4b, -0x11, -0xb, -0xc, -0x13, -0xa, -0x15, -0x1e, -0x14, -0x12, 0x1, 0x10, 0x18, -0x11, 0x14, 0xc, -0x3f, -0x15, -0x2, -0x1d, -0x2, -0x1b, -0xb, 0x27, -0x12, -0x11, -0xd, -0x12, 0x1b, 0x29, 0x19, 0x8, 0xb, 0x2b, -0x15, -0x25, 0x8, 0x26, 0x13, 0x2d, 0x15, 0x10, -0x15, -0x18, -0xc, -0x3, 0x19, 0x6,
-0x2, 0x1a, 0x21, 0x5, -0x19, -0x3a, -0x2a, 0x24, 0x9, -0x14, 0x8, 0x1d, -0x1, -0x37, -0x10, -0x12, -0x29, -0x2, -0xb, -0x2f, -0x16, -0x10, 0xe, -0x15, -0x2, 0xf, -0x19, -0x29, -0x1c, -0xf, 0x2, -0x2b, -0x39, -0x46, 0x18, -0x9, -0x37, 0x10, -0x1, -0x16, -0x6, -0x3e, -0x19, 0x4, -0x1, 0x4, -0xc, -0xc, -0x1, 0x6, -0xe, -0xd, 0x0, -0x6, -0xc, 0x7, 0x7, 0x1, -0x2a, -0x1a, 0x14, -0x3, -0x22, 0x13, 0x5, 0x3, 0xc, -0x43, -0x2d, -0x37, -0x7, -0x5, -0x32, 0xd, 0x26, -0x22, -0x15, -0x18, -0x2, -0x9, -0xb, 0x9, 0xc, 0xc, 0x26, -0xa, -0x10, -0xb, 0x8, -0x12, 0x5, -0x4, -0x5, 0x35, 0x13, 0x24, 0x1, -0x1, 0xa, -0x19,
0x7, 0x15, -0x5, -0x2d, -0x1a, -0x11, -0x9, 0x0, -0x5, -0xf, -0x10, -0x7, -0x22, -0x21, -0x2d, -0xb, -0x1, -0x1, -0x10, -0x22, -0x1c, 0x0, 0x1a, 0x4, 0x12, 0x15, 0x6, -0x6, 0x1, -0x4, 0x1, -0x10, -0xd, 0x15, 0xb, -0x7, 0x3, 0x0, -0x10, -0x36, -0x53, -0x38, -0xf, -0x17, -0x18, -0xb, -0x10, -0x5, -0x16, -0x8, -0x3, 0xc, 0x2f, 0x2a, -0x12, 0x7, -0xa, -0x39, -0x2d, -0xb, 0x9, 0x1, -0xb, 0xf, 0x1b, -0x14, -0x13, 0x28, 0x7, -0x37, 0x11, 0xa, -0x1b, 0xd, 0x2b, -0x5, -0x29, -0x1d, 0x6, -0x4, -0x1c, 0x11, 0x14, -0x4, -0xd, -0x28, -0x2a, -0x1d, -0x3d, -0x4a, -0x1c, -0x28, -0x33, 0x11, 0xd, 0x1b, 0x1c, 0x1d, 0xe, 0x12,
0x18, 0x10, -0x12, -0x4, -0x13, -0x4, -0x5, -0x22, 0x1, -0x9, -0x25, -0xe, 0x7, 0x7, -0x29, -0x7, 0x5, 0x5, 0x2, -0x7, -0x2, -0x3, 0x15, 0x19, -0x9, -0x3, 0x16, 0xd, 0x10, 0x10, -0x1, 0x2, 0x0, 0x2, 0x2, 0x5, 0x8, -0x2, -0x13, 0x2, -0x2, 0x14, 0x2, 0xd, 0x1a, -0xb, -0x16, 0x9, -0x5, -0x19, 0x13, 0xa, -0x5, 0x9, 0x9, 0x14, -0x3, 0xa, 0x1a, -0x5, 0x3, 0x20, 0xf, 0x5, 0x22, 0x13, 0x22, 0x14, 0x3, 0x1, -0x8, -0x9, 0x7, 0x8, 0x8, -0x2, -0xb, 0x28, 0xa, -0x2, 0x18, -0x7, -0x16, 0x1, -0x2, -0xa, -0x1b, -0x27, -0x15, -0x1c, -0x1f, -0x25, -0x15, -0xc, -0x11, -0x9, -0x4, -0x15, -0x4, 0x13,
-0x2, 0xc, 0xd, 0xc, 0x17, 0x6, 0xa, 0xf, 0xb, 0x6, 0x9, 0xc, -0x12, 0xd, 0x2, 0x7, -0x5, 0x5, 0x5, 0xa, 0x3, 0x1, 0xb, 0xf, -0x14, 0x0, 0x1c, -0xa, 0x4, -0x1, 0x8, 0x1e, 0x16, 0xa, 0x7, 0x10, 0x17, -0x2, -0xa, 0xc, -0x2, -0x17, 0x0, 0x13, 0x0, -0x3, 0x12, 0x1d, 0xd, -0x8, 0x18, 0xd, -0xc, -0x2, -0x9, -0x9, -0x10, 0x0, 0x13, 0x6, -0x5, 0xe, -0x3, 0x6, 0x1e, 0x1f, 0x12, 0x5, 0x1c, 0x16, 0xa, 0x13, 0xb, 0x13, 0x1a, 0xc, 0x4, 0xe, 0xa, 0x6, 0xb, 0x1, 0x14, -0x9, -0x18, 0x9, 0x1, -0x13, -0x4, 0x1, 0x3, -0x5, -0x2, 0x7, 0x1a, 0xb, 0x4, 0xa, -0x3, -0xb,
0x1f, 0x1e, 0x8, 0x11, 0xf, 0x8, 0x3, 0x8, -0x9, 0x19, -0x4, 0xb, -0x2, -0x8, 0xb, 0x3, -0xd, 0xf, -0x1d, -0x35, -0x1a, -0x33, -0x44, -0x29, -0x2c, -0x28, -0x23, 0x10, 0x8, 0xa, 0xe, -0x4, 0x0, 0x5, 0x0, -0x4, 0x16, -0xb, -0xd, 0xb, -0x2, -0x4, 0x4, -0x13, 0x1, 0xd, 0x7, 0x12, 0x9, -0xb, -0x12, 0x2, -0x5, -0x16, 0x13, 0x7, -0x6, -0x13, 0x1, 0x11, -0xa, -0x1, 0xa, 0x12, 0xe, 0x14, 0x10, -0x1a, -0x1e, -0x4, -0x1a, -0x37, 0xf, 0x10, 0xa, 0x0, 0x3, -0xc, -0x6, -0x18, -0x18, 0x14, 0x13, 0x17, 0x22, 0x11, -0xd, -0x25, -0x1c, -0x25, 0x1c, -0x1, -0x18, 0x6, -0xa, -0xc, -0x4, -0xd, -0x10, 0xf,
0x4, 0xe, -0x3, -0xb, 0x6, -0xe, -0x17, -0x18, 0x7, 0x3, -0x4, 0x11, 0x5, -0x29, 0x2a, 0xd, -0x20, -0x1f, -0x1c, -0x20, -0x15, -0x1e, -0xb, -0xf, -0x18, -0xc, -0x18, -0x18, -0x8, -0xa, -0x12, 0x3, 0x6, 0x6, 0xd, -0x8, -0xa, -0xe, -0x14, -0x19, 0xa, -0x15, -0x11, 0xa, 0x29, -0xd, 0x3, -0x1, -0x18, -0xa, 0x5, -0x3, 0xd, -0xc, -0x8, 0xa, -0x19, -0x1e, 0x9, -0xc, -0xa, 0xa, -0x1b, -0x12, -0x5, -0x3, -0x11, -0x1a, 0x1, -0x3, -0x28, 0xd, 0xa, 0x10, -0x2, -0x15, -0x6, -0x11, -0x27, -0x4, 0x1e, 0xf, 0x16, 0x5, -0x3, 0x5, -0x18, -0xe, 0x0, -0x14, -0x8, -0x13, -0x1b, -0x13, -0x11, -0x1, -0xc, -0x4, -0x14, -0x4,
-0x15, -0xe, 0x15, -0x15, -0x1a, 0xc, -0x25, 0xb, 0x19, 0x6, 0xb, 0x12, -0x23, 0xe, 0x5, -0x1d, -0x1f, -0x1d, -0xc, -0xd, -0x21, 0x15, 0x2, -0x10, 0xb, -0x16, -0xd, -0x12, -0x16, -0x23, -0x11, -0x10, -0x14, -0x2, -0x21, 0xc, 0x14, -0x9, 0x6, 0x14, 0xb, 0x6, -0x10, 0x10, -0x2, -0x13, -0xf, -0x11, -0x18, 0x0, 0x8, -0x15, 0x21, 0x28, 0x2b, -0x26, -0x8, 0x25, -0x22, -0x12, 0x10, 0x1b, 0x1e, 0x3, -0x1f, -0xa, 0x3, -0x25, -0x11, 0x2, -0xe, -0xc, 0x8, 0xb, -0x11, -0x17, -0x6, 0x5, -0x23, 0x23, -0x1, -0x1c, 0xf, -0x9, -0x21, 0x8, 0xd, -0xc, -0x14, -0xe, -0xe, -0x1a, -0xa, -0xd, 0x4, -0xc, 0x2, -0x3, -0x1b, -0x1f,
0x3b, 0x15, -0x1a, 0x26, 0x1d, -0x1b, 0x8, 0x12, 0x3, -0x1, 0x2, -0xc, -0x10, -0x10, -0xb, 0x17, 0xd, 0xf, 0x4, -0x1, 0xf, -0x13, -0x5, 0x7, 0xe, 0x10, -0x8, 0xf, 0xf, -0x9, 0x1d, 0x11, 0x7, 0x1b, 0x15, 0x1b, -0x5, -0x14, -0x3, -0x3, -0x17, 0xa, -0x37, -0x2a, -0x29, -0x28, -0x29, -0x12, -0x22, -0x15, 0x1, 0x24, 0x25, -0x10, 0x1b, 0x1e, -0x13, 0x1e, 0x36, 0xa, 0x11, 0x26, 0x2, 0xf, 0x28, 0x8, -0x4, 0xf, -0x6, 0x1, 0x8, 0xd, -0x4, 0x9, 0x2, -0x10, 0x1, 0x1, 0x1a, 0x15, 0xd, 0x1c, 0x1f, 0x0, 0x14, 0x13, -0x14, -0x11, 0x1d, -0xa, -0x12, 0x18, 0x12, -0x9, -0x6, -0xa, -0x2, -0x9, 0x1, 0xc,
-0xe, 0x10, 0xc, -0xb, 0x2, 0x0, -0x2e, -0x7, 0x15, -0x1e, -0x7, -0x4, -0x8, -0x7, -0x1d, -0x30, -0x10, -0x2, -0x34, -0x7, 0x5, -0x1a, -0x6, 0x1, -0x19, -0x18, 0xf, 0x8, 0x11, -0x1, -0x8, -0x1, 0x2d, 0x10, 0xb, 0x11, 0x12, 0x0, -0x32, -0x5, -0x8, 0xb, 0x21, 0x1b, -0x15, -0x8, -0x2, -0x10, 0x2, -0x7, 0x7, -0x5, -0x19, 0x38, 0x28, 0x6, 0x2a, -0x10, -0x26, -0x1a, -0x3, 0x7, -0x10, 0x6, 0x5, -0xa, 0xf, 0x9, 0x19, 0x1, 0x7, -0x2, 0x10, -0xc, -0x1c, 0x9, -0x11, -0x1d, -0x2, 0x1f, -0x18, -0x18, 0x1a, -0x14, -0x1e, 0x17, -0x1b, -0x2e, 0x4, 0x14, -0x3, 0x15, -0x3, 0x1e, 0xf, 0x7, 0x8, -0x8, 0xf, 0x5,
0x0, -0x8, 0xf, -0x2, 0x15, 0xe, 0x1, 0x9, 0x28, 0x1a, -0x1c, -0x12, -0x18, 0x12, -0x2, -0xf, 0x10, -0x21, -0xd, -0x8, -0xa, -0x18, 0xb, 0x25, 0x2f, -0x11, -0x1, 0x1f, -0x4, -0xe, 0x0, -0x28, -0x20, -0x5, 0x7, 0x0, 0x17, 0x3, 0x11, 0x16, 0x1d, 0x18, -0x1, -0xa, -0x5, -0x11, -0x7, 0x15, -0xb, 0x1f, 0x12, -0x1f, -0x2, 0xe, 0x0, -0x14, -0x5, -0xf, -0x13, -0x17, -0x1, -0xe, -0x8, 0x1c, -0x11, 0x15, 0x10, 0x11, 0xf, 0x6, 0xd, 0xf, 0x2, 0x2, 0x0, 0x2, -0x10, -0x1, 0x14, -0x11, -0x13, 0x19, 0x2, 0x0, 0x4, -0x16, -0x1f, -0xe, 0x17, -0x2, -0x5, 0xe, -0x16, -0x17, 0x1c, 0x15, -0x1, 0x1e, 0x1d, 0x1,
0x5, 0xc, -0x8, 0x1b, 0xf, -0x5, 0x9, 0x10, -0x3, -0xe, -0x6, -0x11, 0x1f, 0x6, -0x9, 0x31, 0x9, 0x6, 0x16, 0x1, -0x13, -0xc, -0xf, 0x1c, 0x8, -0x14, 0xe, -0xc, -0xe, 0x4, 0x2d, 0xc, -0x29, 0x2c, 0x2a, 0xb, 0x1f, 0xa, 0x1, -0x16, -0x17, 0x4, -0x53, -0x1e, 0x1d, 0xf, 0x2f, 0x3a, -0x8, -0x24, -0x14, -0x39, -0x5b, -0x31, 0x1d, 0x2a, 0x24, -0x9, -0x22, -0x1, -0x22, -0xe, -0x1, -0xc, 0x28, 0x16, -0x1c, -0x1d, -0xa, 0x29, 0x14, -0xa, 0x13, 0x18, 0x6, 0xa, 0x15, -0x20, 0x11, -0x15, -0x3f, -0x18, 0xc, 0x22, 0x3, -0x18, 0x1, -0x3, 0x2, 0x32, 0x6, 0xb, 0xd, 0x0, -0x3, -0x2, -0x4, 0x21, 0x35, -0x5,
0x10, 0xa, -0xb, 0x17, 0xc, 0x15, 0x15, -0x11, -0x1f, -0x5, -0x10, -0x9, -0x23, -0xd, 0x25, 0x15, -0x7, 0x18, -0xc, -0x6, -0xa, -0x13, -0x31, -0x1c, 0x1b, 0x7, 0x32, -0x1a, 0x4, 0x0, -0x1, -0xb, 0x10, 0x23, -0x17, 0xa, 0x30, 0x13, -0xa, -0x8, -0xc, -0x1f, 0x25, 0x1d, -0x26, -0x1e, -0x10, 0x6, -0x3, -0x1b, -0x20, -0x1a, -0x15, 0x2b, 0x18, 0x27, -0x1e, -0x13, -0xb, -0x31, -0x2a, -0x21, 0x6, 0x11, 0xa, 0x5, 0x21, 0xa, 0x10, 0x3a, -0xa, -0xd, 0x13, -0x28, 0x6, 0x28, -0x13, -0x23, 0x21, -0x18, -0x1e, -0x17, -0x2d, -0x1e, -0x32, -0x18, -0x25, -0x16, 0x21, 0x1b, 0x27, 0x2a, -0x12, -0x1, 0x1, 0x32, 0x2a, 0x9, 0x18, -0x43,
-0x10, -0x12, -0x8, -0x28, -0x1c, 0x7, -0x5, -0x17, -0xc, -0xb, -0x13, -0xa, -0x13, 0x3e, 0x3, -0x3c, 0x1b, 0x26, 0x13, -0x1c, -0x1b, -0x15, -0x2, 0x34, 0x21, 0xe, 0x17, 0x13, -0x19, -0x7, -0x12, 0x10, 0x11, -0x19, 0xf, 0x6, -0x6, -0x1, -0xa, -0xe, 0x2d, 0xe, -0xd, -0x15, -0x25, 0x2a, 0x4, -0xc, -0xb, -0xf, 0x9, 0xd, 0x1a, 0x27, -0x2, 0x1b, 0x2c, 0x17, -0x16, -0x31, -0x29, 0x18, 0x22, 0x2f, 0xb, 0xd, -0x3, 0x1, 0x12, -0x5, 0x3, 0xf, -0x9, -0x12, 0xf, -0x21, 0x10, 0x3e, 0x3e, -0x35, -0x17, -0xe, -0x5, -0x23, -0x2, -0x5a, -0x5d, -0x13, 0x21, 0x29, 0x12, -0x1f, -0x25, -0x24, 0x24, -0x8, -0x11, 0x1f, 0x1e, 0x1d,
0x23, 0x2f, -0x6, -0x18, 0xd, -0x9, 0x24, 0x16, -0x20, 0x6, 0x19, 0x1d, -0x3, -0xc, -0x12, -0x13, -0x2a, -0x9, 0x1c, -0x10, 0x5, -0x5, -0x40, -0xc, -0x1, -0x14, -0x17, -0xf, -0x10, -0x21, 0x4, 0x7, -0xc, -0x12, 0x7, 0xf, -0xb, -0x9, -0x16, 0x4, 0x5, 0x7, -0x7, -0x15, -0x1b, 0x0, -0x25, -0x8, 0x29, -0x1, 0x6, 0x19, 0xc, -0x7, -0x10, -0x18, -0x16, -0x4, 0xc, -0x5, -0x7, -0x7, -0xd, 0x14, -0x26, -0x12, 0x2d, 0x29, -0x5, 0xf, 0x20, -0x5, -0x23, 0xe, 0x20, -0x1f, 0xc, 0x14, 0x14, 0xf, 0x3, -0x1f, -0x25, 0x8, -0x19, -0x19, 0x0, -0x8, -0x6, -0x1, -0x3, 0x1, 0x12, -0x1c, -0x1e, -0x17, -0x1, -0xd, 0x1, 0x21,
-0x7, -0x1b, 0x1d, -0x2, 0xc, -0x5, -0xb, 0x17, 0x22, -0x5, 0x12, -0x15, 0x6, 0xc, -0xd, -0xb, 0x3, 0x3, -0x1c, -0x3, -0x21, -0x23, 0x15, -0x15, 0xe, 0x1a, -0x15, -0xb, 0x24, 0x7, 0x29, 0xf, 0x0, -0x2, 0x3, -0x10, 0xe, 0xb, 0x4, 0xc, 0x17, -0x5, 0x17, 0x17, -0x1, 0x6, -0x7, 0x1a, 0x16, 0x14, -0xd, -0xb, 0xe, -0x14, -0xc, 0x7, -0x2b, -0x3c, -0x16, -0x5, 0x1, 0x5, 0x7, 0x15, -0xb, -0x2f, 0x5, -0x12, -0x1f, 0x3, -0x5, 0x2, -0x2, 0x20, 0x2, 0x29, 0x28, 0xc, 0x16, -0x1, -0x6, -0x7, 0x11, 0xd, -0x14, -0xa, 0x3, -0x1b, -0x16, -0x1f, -0x2c, -0x7, -0xc, -0x25, -0x18, 0xa, -0x9, -0x1b, 0x30, -0x6,
-0x1a, 0x1e, -0x12, -0xe, -0x12, -0x14, 0x12, -0x6, -0x1e, 0xa, -0x13, -0x2a, 0x19, 0x3, -0xa, 0x1b, -0xc, 0x9, -0x14, -0x15, -0x16, -0x19, -0x27, 0xb, -0x2, -0x1e, 0x1, 0x0, -0x11, -0xf, -0x2, -0x24, -0x7, 0xe, -0x10, -0x1e, 0x7, 0x1d, 0x1e, 0x1f, 0x18, 0x1e, 0x18, -0x34, -0x26, -0x3c, -0x2d, -0x11, -0x23, -0x12, -0x39, -0x29, -0x2a, -0x3a, -0xc, -0x1b, -0x1b, 0x0, 0x1, 0x3, 0x3, -0x14, -0x22, -0x3, 0x4, -0x5, 0x12, 0x18, -0x14, -0x18, -0x1c, -0x16, 0x1, -0x5, 0x0, 0x8, -0x11, -0x15, -0xb, 0x5, -0x8, 0x14, 0x7, 0x23, 0xc, 0x1, 0x18, 0x9, 0x2f, 0x36, 0x7, 0x20, 0x29, -0x25, 0x28, 0x17, -0x15, 0x2, -0x13, -0x1,
0x7, -0x1c, -0x1a, 0x9, -0x5, -0x26, 0x2, 0x20, -0xa, 0x25, 0x23, -0xc, 0x1a, 0x23, 0x10, 0x15, 0x12, 0x22, -0x4, -0x3b, -0x14, -0x2d, -0x18, -0x23, -0x8, 0x2b, 0xf, 0xb, -0x1d, -0x12, -0x21, -0x66, -0x4f, -0x16, -0x10, 0xf, 0x9, -0x10, -0xe, 0xe, -0x16, -0x9, 0x6, 0xc, 0x7, -0x9, 0xa, 0xc, -0x27, -0x19, -0x1c, -0x12, -0x15, -0x4, -0x15, -0x5, 0xd, 0x12, 0x1e, -0x1d, -0x1d, 0xd, 0x4, -0x9, 0x1b, -0xa, -0x33, -0xc, -0xf, 0x8, 0xa, 0x19, -0x5, -0x21, 0xd, 0xc, -0xb, -0x29, -0x7, -0x9, 0x1e, 0x0, 0xc, 0x0, 0x3, 0x2b, -0x11, 0x9, -0x28, -0x9, -0x2a, -0x15, -0x7, -0x4, 0x23, 0x32, 0x9, 0x1, 0x13, 0x12,
0x18, 0x9, -0x7, -0xa, -0x8, 0x1, -0x1, -0x3, -0xe, 0x36, 0x2c, 0xc, -0x10, -0x1a, 0x18, 0x8, -0x37, 0x3a, 0x16, -0x10, -0x12, 0x19, 0x40, -0x13, 0x23, 0x9, 0x12, -0x1, -0x7, -0x30, -0x52, -0x4e, 0x9, 0x1d, 0x7, -0x7, 0x4, 0x8, -0x1f, -0x4d, -0x2d, -0x8, -0x1f, -0xa, 0x8, 0x7, 0x2, 0x11, 0x2c, 0x2, -0x21, -0x6, 0x1d, -0x2, 0x20, 0xe, -0x9, 0xb, 0x1c, 0x0, 0x1f, 0x1, 0x2a, 0x16, -0x3, -0x44, -0x4d, -0x2a, 0x13, 0x5, 0xf, 0x13, 0x6, 0x23, 0x4, -0xc, -0x11, -0xd, 0x7, 0x1c, 0xc, -0x9, 0x14, 0x1, 0x23, -0x8, -0x2, 0x13, 0x12, -0x1f, -0x7, 0x2, -0x1b, -0x1d, -0x26, -0x4, 0x23, 0x5, -0xc, 0x10,
-0x17, -0x1a, 0x2, -0x2, 0x18, -0x9, 0x7, -0x2, 0x24, 0x7, 0x25, 0x42, -0x7, 0x9, 0x13, 0x14, 0x3, -0x6, 0x16, 0x1b, -0x8, -0xb, 0xe, -0x3, 0x9, 0x8, 0x17, 0x1f, -0x1c, -0x17, 0x5, 0x12, 0xa, -0x21, -0x10, 0x18, -0x2, -0x19, 0x10, 0x1e, 0x8, 0x18, 0x1, 0x7, 0x9, -0x4, 0x2, -0x6, -0x1c, -0x3, -0x2e, -0x13, -0xe, -0x1d, -0x34, -0x10, 0x76, 0x8, -0x1, 0x2c, -0x4, 0x0, -0x1a, 0x1, -0x2f, -0x7f, -0x1e, 0x17, 0x3b, 0x1f, -0x12, -0x2, -0x1a, -0x2e, -0x5c, -0x48, -0x20, -0xc, 0x15, -0x7, 0x10, -0xa, 0x17, 0x3b, -0x2b, -0x2e, 0x3, 0x3, -0x6, 0x13, -0x22, 0x8, -0x25, -0x20, 0x29, -0x2f, -0x3, -0xc, -0x1c, 0x6,
-0x17, 0x47, 0xd, 0x2d, 0x24, -0x2, 0x2d, -0x1b, -0x38, -0x3b, -0x36, -0x26, -0x4, -0xe, -0x14, -0x1c, -0x2c, -0x25, -0x1a, -0x18, -0x4, -0x10, 0x16, 0x2a, 0x8, -0x18, -0xe, 0x1a, -0x22, -0x28, 0x16, 0xb, 0x2, 0x5, 0xb, 0x0, -0xb, -0x13, -0xd, 0x1, -0x4, -0x6, 0x5, 0x4, 0xc, 0x4, -0x2c, 0x4, 0x7, -0x9, -0x19, -0xb, 0x4, 0x6, 0x24, 0x23, 0x1c, 0xe, -0x14, -0x14, 0x11, -0x11, 0x6, 0x14, 0x16, 0x10, 0xe, -0x1c, -0x21, 0x1, -0x5, 0x1a, 0x2f, 0x18, 0x6, 0x8, -0x7, -0x7, -0x29, 0x6, 0x22, -0xc, 0x12, 0x6, 0x20, 0x29, 0x32, 0x21, 0x2d, 0x27, -0x5, -0x6, -0xc, -0x18, -0x8, -0x8, 0x26, 0x2f, 0x28, 0x21,
0x17, -0x1, -0x19, -0x23, -0x18, -0x1c, -0x33, -0x2a, -0x2, -0x7, -0x8, -0xd, -0xa, -0x4, -0x20, -0x16, -0x13, -0xf, -0xd, 0x1, -0x13, -0xe, -0xa, -0x13, -0x1c, -0x14, -0x13, -0xf, -0xa, -0xa, -0x10, -0x36, -0xe, -0x6, -0xf, 0x12, 0x19, 0x12, -0x5, -0x4, -0x24, 0x14, 0xd, 0x9, 0x51, 0x3f, 0x10, -0xd, -0x1b, -0x2f, -0x27, -0x36, -0x3b, -0xc, -0x3, -0x4, -0x1e, -0x7, 0x14, -0x19, 0x3, 0x1b, -0x2f, -0xd, -0xe, 0x14, -0xd, 0xe, 0x6, -0x1f, -0x1, 0x2, -0xb, 0x3, -0xa, -0x1e, -0x22, -0xb, 0x11, 0x6, 0xb, 0x4, 0x22, -0xa, -0x12, -0x1e, 0x2, -0x25, -0x19, -0x3, 0xe, 0x7, -0xc, 0x6, 0x10, 0x15, 0x1a, 0x34, -0x19, 0x1,
-0x2, 0x9, 0x13, 0x17, 0x16, 0x22, 0x24, -0x4, 0x19, 0x15, 0x3, 0x9, -0x16, 0xf, 0x5, -0x1b, 0xf, -0x5, -0x7, 0x7, -0x1, 0x8, 0xc, -0x5, -0x7, -0x2b, -0x36, -0x16, -0x12, -0x1e, -0x30, -0x3, -0x1a, 0x3, -0x4, 0xc, 0x12, 0x25, 0x1d, -0xd, 0x1e, -0x1, -0x18, 0xf, -0x8, -0x10, -0x5, -0x13, -0xc, -0x21, -0x2d, -0x1b, -0x24, -0xe, -0x1, -0x2, -0x4, 0x0, 0xf, 0x18, 0x14, 0xf, 0xe, -0x9, 0x16, 0x18, 0x12, 0xd, 0x13, 0x16, -0x1c, -0xd, -0x7, 0x4, -0xf, -0x14, -0x10, -0x19, 0x13, -0x10, 0x2, 0x0, 0x1b, 0xd, 0x12, 0x21, 0x17, -0x15, -0x11, -0x27, -0x16, -0xf, -0x2e, 0x9, 0x1e, -0x3, 0xa, -0x14, 0x4, 0xe,
-0x10, -0x1, 0x17, -0x17, -0xa, 0x8, -0x8, -0x8, -0x4, -0x20, 0x6, 0x12, -0xa, -0x19, 0xa, -0x20, -0x1c, -0x3, 0x1, 0x3, 0x24, -0x8, 0x25, 0x23, -0xc, 0x23, 0x14, 0x26, 0x0, -0x18, 0x3b, 0x17, -0x12, 0xb, -0xa, -0x23, -0x1b, -0x1b, 0x31, -0x13, 0x0, 0x21, 0x7, 0x3, 0xc, -0x1b, 0x5, 0x2, 0x17, 0x5, -0xe, 0x14, 0xd, -0x5, 0x1c, 0x1c, -0x19, 0x16, 0x1, -0x26, 0x14, 0x2, -0x1a, 0x15, 0x12, -0x10, 0x2, 0x18, -0x17, 0xc, 0xd, -0xc, -0x3, -0x4, -0x11, -0x3, 0xa, -0x1, -0x11, 0x3, 0x29, -0x10, -0x2, 0x0, 0x5, 0x8, 0x12, 0x4, 0xf, 0x1f, 0x23, -0xd, 0x0, -0x3, 0x3, 0x9, -0x7, -0x1b, 0x9, -0x3,
0x21, 0x37, -0x15, 0x13, 0xf, -0x1d, -0xb, 0x3, -0x17, -0x7, 0x0, -0x26, 0x3, 0x10, -0x1, 0x7, 0xd, 0xd, 0xd, -0x20, 0x2a, 0x1b, -0x26, 0x18, -0x5, -0x17, -0x23, -0x5, 0x33, -0x1a, -0x11, 0x14, -0x6, -0x11, 0x20, -0x19, 0x3, 0x22, -0x29, -0xf, 0x2a, 0x0, -0x1, -0x8, -0x18, 0x11, -0xd, 0x7, 0x0, -0x21, -0x21, -0x19, -0x20, -0xf, -0x18, -0x9, 0x10, 0x7, 0x7, 0x8, 0x13, 0x1b, 0x4, 0x20, -0x6, -0x11, 0x2, -0xd, 0x6, 0xc, 0x6, 0x1c, 0x22, 0x20, -0xe, 0x19, 0x2d, -0xd, -0x9, 0x12, 0xf, 0x17, 0xb, -0x21, 0x3, 0x2, 0xf, 0x16, 0x2, -0x6, -0x6, -0x2, 0x7, 0x13, 0xf, 0x14, 0x21, 0x20, -0x32, -0x29,
0x6, -0x11, -0x17, 0x1d, 0xc, 0xb, 0xf, 0x12, 0xf, 0x9, 0x6, 0x15, -0xa, 0x12, 0x1, 0x18, 0x11, 0x16, -0x3, 0x17, 0x10, -0x6, 0x2, -0xc, -0x19, 0x0, -0x11, 0x1, 0x2e, -0x2, 0x0, -0x5, -0x1, -0x2, -0x15, 0x9, 0x12, -0x1e, -0x8, 0x7, -0xe, -0xa, -0x1, 0x2, 0xe, -0x2, -0xc, 0x10, -0xc, 0x2, 0x11, -0x2, 0x29, -0x19, -0x5, 0x45, 0x5, -0x26, 0x7, 0x19, -0x4, 0x7, 0xd, 0x2c, -0x4, -0x8, -0xb, -0x9, -0x10, -0xe, 0xd, -0x12, -0xb, 0x19, 0x22, -0x2, -0x2, 0x15, 0x4, 0xc, 0x13, 0x1c, 0x6, -0x3, 0xc, -0x15, -0x23, -0xd, 0x8, 0xc, 0x8, 0x9, 0x8, 0x1, 0x5, 0x7, 0x5, -0x8, -0x1, 0x0,
-0x4, 0x4, 0x1, -0x13, -0xa, -0x8, -0x1b, 0xf, -0x6, 0x6, 0x19, 0xb, 0x5, 0x13, 0x15, -0x3, 0x5, -0x2, -0x1b, -0x2, -0x6, -0x27, -0x3, -0x9, 0x11, -0x1, -0x1, 0x0, -0x2, -0xe, -0x16, -0x10, -0xf, -0x1c, -0x1, 0xc, -0x15, -0x4, 0x15, -0xe, -0x14, 0x4, -0xd, 0x17, 0xb, -0x10, 0xd, 0x1, -0x10, 0x6, -0x5, -0x3, 0x3, 0x3, 0x1, 0x8, 0x10, 0x4, 0x16, 0xf, 0x3, 0x2, -0x1, 0xe, 0x7, -0x6, -0x7, -0x4, -0x10, -0x1f, -0x15, -0x16, -0x13, 0x6, -0x9, -0xa, -0x3, -0x15, -0x13, -0x21, -0x6, 0x3, 0x7, 0x10, 0x28, 0x37, 0x38, 0x12, 0x26, 0x12, 0x1b, 0x1f, 0x6, 0x2a, 0x1d, 0x1, 0xf, 0x14, 0x11, 0x18,
0x12, 0x8, 0x18, 0x18, 0x9, -0xc, -0x6, -0x10, -0x1c, -0x3, 0xa, -0x7, 0xf, 0xd, -0x1e, -0x1a, 0x5, -0x15, -0x1c, -0x4, 0x15, -0xf, -0x13, 0x6, 0x5, 0xd, -0x2, -0x1, 0x7, 0x0, -0xc, -0x5, -0x17, 0x12, -0x2, -0xb, 0x25, -0x14, 0x11, 0x30, 0x2, 0x4, 0x12, -0x3, -0x12, 0x15, -0x2, -0x1a, 0xd, 0x13, 0x14, 0x2, -0x22, 0x10, -0x1, -0x2d, 0x1b, -0x6, -0x21, 0x0, 0xf, -0x2, 0x1, -0x1, -0xb, -0xe, -0x4, 0x3, -0xc, -0x8, -0x10, 0x18, -0x14, 0x3, -0x3, -0x15, -0x17, -0x24, -0x1f, 0xd, 0x4, -0x10, -0x4, -0x8, -0x27, -0x1b, -0xf, -0x12, -0x9, -0x28, -0x17, -0x2a, -0x2f, -0x2f, -0x37, -0x4, 0x8, -0x2, 0x2, 0x2,
-0x5, 0x7, 0x1d, 0x11, 0xc, 0xd, 0x1, -0x16, -0x9, -0x2, 0x1, 0xd, 0x19, -0x11, 0x11, -0x3, -0x27, 0x7, -0x12, -0xa, 0x30, 0x19, 0x0, 0x6, 0x7, 0x5, 0x2, 0xb, 0x5, 0x1, 0x8, -0x4, 0xa, -0xa, 0x16, 0x13, 0x7, 0x13, -0x5, -0xd, 0x16, 0x18, 0x19, 0x1d, 0x1c, 0x22, -0x8, 0x12, 0x16, 0x1c, 0x2c, 0x11, -0x6, -0xc, -0x3, 0x5, -0xa, -0xc, -0xf, 0x0, -0xb, 0x3, 0xf, 0x11, 0x21, 0x2f, 0x46, -0x1e, -0x19, -0x1b, -0x1a, -0x1f, -0x18, -0xe, 0x3, -0x6, 0x5, -0x6, -0x1b, -0xd, -0xb, -0x6, -0xa, -0xe, 0x4, -0xd, -0x17, -0x25, -0x11, -0x20, -0x15, -0xe, -0x17, -0x10, 0xb, 0x1a, 0x9, 0xa, 0x7, 0x5,
0xa, -0x2, -0x9, 0x33, 0x18, 0x17, 0x2a, 0x13, 0x5, 0x6, -0x7, -0x11, -0xe, -0x1e, -0x2b, -0x19, -0x1a, -0x1d, -0x17, -0x3, 0x4, -0xf, -0x1, -0xe, -0x17, -0x10, -0x8, -0x13, -0x10, -0x7, -0xb, 0x0, 0x3, -0x5, -0xa, 0xf, -0xa, -0x15, -0x1, 0xc, 0x1, 0x8, 0xd, 0x10, 0xc, 0xe, 0xd, 0xf, 0x9, 0x5, 0x0, 0x3, 0xc, -0x6, -0x8, 0xd, 0x6, 0x12, 0x9, 0x3, 0xe, 0x8, 0x12, 0xa, 0x4, 0x12, -0x5, -0x12, -0x16, -0xb, -0x1, -0x1, 0x3, -0x2, -0x5, 0x2, -0x6, -0xa, -0xc, -0xb, -0x4, -0xb, 0x1, 0x3, -0xb, -0x17, -0xf, -0x23, -0x29, -0x7, -0x17, -0x11, -0x8, 0x17, 0xa, 0xb, 0xf, 0xd, -0x6, 0xc,
-0xc, -0x1f, -0x7, 0x3, -0x11, -0x21, 0x2, 0x6, -0x1a, 0x1, -0x5, -0x14, -0x36, -0x30, -0x2e, -0x23, -0x13, -0x14, -0x1d, -0x6, 0xb, 0xe, 0xf, 0x15, 0x20, 0x2e, 0x13, 0x10, 0x3, 0xc, -0x3, -0x12, -0x5, -0x11, -0x11, -0xf, -0xf, -0xf, -0x2, 0x3, 0x1e, 0x9, 0xd, 0x11, 0xa, 0x0, 0x1, -0x1f, -0x32, -0x1d, -0x20, -0x27, -0x14, -0x21, -0x1c, -0x1, 0x8, 0x11, 0x5, 0xc, 0x12, 0x12, 0x1, 0x9, 0x7, 0x4, 0x6, 0xe, 0x29, 0x1e, 0x28, 0x1b, 0xd, 0x11, -0x17, -0x1d, -0x15, -0x2b, -0x25, -0x10, -0x24, -0xc, 0xd, 0x0, 0x2, -0xc, -0x9, -0x4, -0x7, -0x10, -0xf, -0x9, 0x3, 0x2, -0xc, -0x17, -0xd, -0xa, -0xc, -0xb,
-0x11, -0x1a, 0x5, -0xf, -0x21, -0x11, -0x14, -0x10, -0x12, -0x21, 0x5, -0x19, -0x14, -0xc, -0x10, -0x6, -0x9, -0x3, -0x3, -0x3, 0x2, 0x6, -0x1, 0x17, 0x15, 0x3, 0x12, 0xf, -0x8, -0x2, -0x15, -0x4, -0x1, 0x0, 0x5, 0xb, 0x5, -0x8, -0xa, 0x2, 0x0, -0x5, -0x6, -0x2, -0x10, -0xf, -0x3, 0x3, 0x6, 0x3, 0x2, -0x1, 0xa, 0xf, -0x17, 0x17, -0xb, -0xe, 0x9, -0xd, -0xb, 0x0, -0x9, 0x12, 0x8, 0x3, -0x1a, 0x11, -0xb, -0x14, 0x8, -0x8, -0x3, -0x18, -0x7, -0x2, -0x9, -0x1, 0xf, -0xf, 0x4, 0x1a, 0x9, -0x7, -0x20, 0x1, 0x0, -0x17, 0x11, 0x3, -0x16, -0x2d, -0x3, 0x6, -0x1c, -0x2a, -0x1d, -0xb, -0xb, 0x9,
0x0, -0x5, 0x0, -0x2, -0x10, 0x8, 0xd, 0x1, 0x12, -0x4, 0xe, 0xf, 0x0, -0x17, 0x5, 0x1, -0x17, -0x11, -0x8, 0x9, 0x16, -0xb, -0x4, 0x10, 0x4, -0x3, 0xe, 0xe, 0x3, 0x4, 0x3, -0x3, -0x14, 0x9, -0x9, -0x23, -0x9, -0xb, -0x32, 0x1e, -0xf, -0x3f, 0x9, 0x1e, -0xc, -0xb, 0x6, -0x5, 0x2, 0x18, 0x15, -0x1e, 0x0, -0x5, 0xa, 0x16, 0xd, 0x4, -0x6, -0x4, 0x1f, -0x10, -0x27, 0x14, 0x9, -0xb, 0x13, 0x4, 0x8, -0x15, -0x22, -0x1, 0x11, 0xd, -0xc, 0x9, 0x11, -0x17, -0x13, -0x5, -0x12, -0x11, 0x4, 0x20, -0x23, 0xf, 0x25, -0xd, -0x1, 0xc, -0x1a, 0xc, -0x2, -0x16, 0x8, -0x7, -0xa, 0x7, -0x1b, 0x1d,
0x17, -0x5, 0x2a, -0xd, 0x7, 0x17, 0x7, 0x5, -0x6, 0x1b, -0xb, 0xd, 0xc, -0x17, -0xc, -0xd, -0x2b, -0xe, 0x1e, 0x12, -0x1b, 0xd, 0x19, -0xe, -0x5, -0xa, -0x8, -0xb, -0x27, 0x10, 0xa, -0xd, 0x6, -0xc, 0x3, 0x2, 0x20, 0x1e, 0x18, 0x11, -0x1, 0x21, -0x7, -0x18, -0x22, 0x7, -0x9, -0x11, 0x8, 0xd, -0x1d, -0x2, 0x7, 0x2c, 0xc, 0x9, 0x36, 0x21, 0x26, 0x37, 0x16, 0x12, -0x13, -0xf, -0x2, -0xd, 0x9, 0xf, 0x1, -0x7, -0x4, 0x24, 0x4, -0xc, 0x2, -0x12, -0x7, -0x5, -0x1e, -0x8, -0xb, 0xb, 0x20, 0xb, 0x2, 0x6, 0x17, -0x6, 0x1, -0x1c, -0xd, -0xa, -0x12, -0x1, 0x9, -0xa, 0x10, 0x0, 0x7, -0x9,
-0xf, 0x4, -0x19, -0xc, 0xb, -0x4, 0x3, 0xd, 0x4, -0x17, 0x18, -0x1, 0x0, -0x8, -0x11, -0x1f, -0x2, 0xa, 0x0, 0x1e, 0x1d, 0x6, 0x18, 0x26, -0x14, -0x24, -0x1a, -0x13, 0x14, -0x2f, -0x1e, -0x4, -0x22, -0xc, 0x2f, -0xd, -0xa, -0x9, -0x21, -0x7, 0x0, -0x5, 0x1, -0x14, -0x3, 0x26, -0x14, -0xd, 0xa, -0x29, -0xf, -0x28, 0x11, 0x9, 0xa, 0xc, 0xa, 0x6, -0x2, 0x6, 0xc, -0xb, 0x1e, 0x10, 0x6, 0x19, 0xb, 0xf, 0x14, 0x12, 0x13, 0x6, 0x2, 0x13, -0x10, 0x8, -0x1d, -0x1, 0xb, 0x8, -0x1, -0xe, 0x19, 0x7, -0xc, 0xa, 0x6, -0x12, 0x8, -0x2, 0x16, 0x5, 0x1, -0x3, -0x6, 0x4, -0x3, 0xe, -0x5, 0xa,
0x13, 0x2, 0xa, -0x7, 0x9, 0xb, 0x0, 0x1e, 0x5, 0x6, 0x18, 0x9, 0xa, 0xd, -0x5, 0xd, 0x2a, 0xe, -0x5, 0x16, 0x0, -0x19, -0xb, -0x5, -0x15, -0x15, 0x6, -0x15, -0x3f, -0x35, -0x34, -0x31, -0x29, 0x15, 0x5, -0x1, 0x9, -0xd, -0xd, 0xa, -0xa, -0xf, -0x6, 0x2, -0x16, -0x1a, -0x9, -0xb, -0xb, -0x6, -0x3, 0x23, 0x1c, 0x15, 0x15, -0xc, -0x1, -0x25, -0x23, -0xa, 0x6, 0x3, 0x6, -0x2, -0x10, -0xb, -0x13, -0xc, -0x14, 0x4, -0x2, -0xe, 0x1d, 0xa, -0x1, 0x28, 0x18, 0x1d, -0x19, -0x3, -0xc, -0x12, -0x3, -0x17, -0x6, 0xd, 0x2, 0x1a, 0x9, 0xc, 0x11, 0x1, -0x8, 0x2, -0x1, -0xf, 0x1, -0x4, -0xa, -0x28,
-0x1, -0x15, -0x18, 0x8, -0x12, -0xa, -0x3, -0x3, 0x3, -0xc, -0x4, 0x8, 0x3, 0x2, -0x11, -0x13, 0x6, -0xd, 0x1, 0x9, 0x26, 0x1e, 0x17, 0x28, 0x28, 0x7, 0x1c, 0x3, -0x18, 0xd, -0x6, -0x15, 0x5, 0x7, 0x1, -0x13, -0x6, 0x6, -0xf, -0x2, -0x9, -0x7, -0x17, -0x11, -0x23, -0x35, -0x7, -0x22, -0x22, -0x1c, 0xb, 0x6, 0x16, -0x3, -0x6, -0x3, -0x12, -0x24, -0x1f, -0x5, 0x8, -0x8, 0x7, 0x1f, 0x7, -0x12, 0x4, 0xb, 0xf, -0x3, -0x4, 0x14, 0x5, 0x8, 0x13, 0xa, 0x14, -0xa, -0x6, -0xe, 0xa, 0x0, -0xc, 0x1d, 0x17, 0x10, 0x10, 0xc, 0x9, 0x12, 0x13, 0x6, 0x1, 0x9, 0x6, 0x23, 0x8, -0x5, 0x5, 0xa,
