#include "model_data.h"

const int IMAGE_DATA_DIMS[] = {1, 3, 96, 96};
const int NODE2OUTPUTS[NODE_NUM][1] = 
{{1}, {2}, {3}, {4}, {5}, {6}, {7}, {8}, {9}, {10}, {11}, {12}, {13}, {14}, {15}, {16}, {17}, {18}, {19}, {20}, {21}, {22}, {23}, {24}, {25}, {26}, {27}, {28}, {29}, {30}, {31}, {32}};
const int NODE2INPUTS[NODE_NUM][NODE2INPUTS_LEN] = 
{{0}, {1}, {2}, {3}, {4}, {5}, {6}, {7}, {8}, {9}, {10}, {11}, {12}, {13}, {14}, {15}, {16}, {17}, {18}, {19}, {20}, {21}, {22}, {23}, {24}, {25}, {26}, {27}, {28}, {29}, {30}, {31}};
const int INPUT2NODES[INPUT_NUM][INPUT2NODES_LEN] = 
{{0}, {1}, {2}, {3}, {4}, {5}, {6}, {7}, {8}, {9}, {10}, {11}, {12}, {13}, {14}, {15}, {16}, {17}, {18}, {19}, {20}, {21}, {22}, {23}, {24}, {25}, {26}, {27}, {28}, {29}, {30}, {31}};
const int NODE_TYPE[] = 
{0, 1, 0, 1, 0, 1, 0, 1, 0, 1, 0, 1, 0, 1, 0, 1, 0, 1, 0, 1, 0, 1, 0, 1, 0, 1, 0, 8, 5, 6, 10, 9};
const int CONFIG[] = 
{8, 3, 3, 3, 8, 2, 2, 0, 0, 1, 1, 2, 1, 8, 3, 3, 8, 1, 1, 1, 1, 1, 1, 2, 16, 8, 1, 1, 16, 1, 1, 0, 0, 0, 0, 2, 1, 16, 3, 3, 16, 2, 2, 0, 0, 1, 1, 2, 32, 16, 1, 1, 32, 1, 1, 0, 0, 0, 0, 2, 1, 32, 3, 3, 32, 1, 1, 1, 1, 1, 1, 2, 32, 32, 1, 1, 32, 1, 1, 0, 0, 0, 0, 2, 1, 32, 3, 3, 32, 2, 2, 0, 0, 1, 1, 2, 64, 32, 1, 1, 64, 1, 1, 0, 0, 0, 0, 2, 1, 64, 3, 3, 64, 1, 1, 1, 1, 1, 1, 2, 64, 64, 1, 1, 64, 1, 1, 0, 0, 0, 0, 2, 1, 64, 3, 3, 64, 2, 2, 0, 0, 1, 1, 2, 128, 64, 1, 1, 128, 1, 1, 0, 0, 0, 0, 2, 1, 128, 3, 3, 128, 1, 1, 1, 1, 1, 1, 2, 128, 128, 1, 1, 128, 1, 1, 0, 0, 0, 0, 2, 1, 128, 3, 3, 128, 1, 1, 1, 1, 1, 1, 2, 128, 128, 1, 1, 128, 1, 1, 0, 0, 0, 0, 2, 1, 128, 3, 3, 128, 1, 1, 1, 1, 1, 1, 2, 128, 128, 1, 1, 128, 1, 1, 0, 0, 0, 0, 2, 1, 128, 3, 3, 128, 1, 1, 1, 1, 1, 1, 2, 128, 128, 1, 1, 128, 1, 1, 0, 0, 0, 0, 2, 1, 128, 3, 3, 128, 1, 1, 1, 1, 1, 1, 2, 128, 128, 1, 1, 128, 1, 1, 0, 0, 0, 0, 2, 1, 128, 3, 3, 128, 2, 2, 0, 0, 1, 1, 2, 256, 128, 1, 1, 256, 1, 1, 0, 0, 0, 0, 2, 1, 256, 3, 3, 256, 1, 1, 1, 1, 1, 1, 2, 256, 256, 1, 1, 256, 1, 1, 0, 0, 0, 0, 2, 3, 3, 3, 3, 0, 2, 3, 1, -1, 256, 2, 256, 2, 0, 1, -1, -1};
const int QUANTIZATION_FACTOR[] = 
{2139095040, 23, 2049024244, 25, 1129750190, 44, 1427228641, 39, 1356472516, 25, 1198448425, 26, 1522997733, 40, 1257212908, 35, 1772717124, 26, 1786930805, 24, 1563192364, 42, 1407650003, 37, 1933802539, 26, 2000580130, 25, 1279945635, 41, 1242130249, 36, 2084037262, 26, 1676216834, 24, 1417502792, 42, 1864873542, 37, 1412619946, 25, 1243235926, 25, 1409777969, 41, 1248200623, 36, 1901356444, 26, 1762234349, 24, 1477856947, 42, 1374241430, 37, 1996919257, 26, 1408156909, 24, 1760954137, 42, 2071617164, 37, 1263168611, 25, 1921307147, 24, 2040334989, 43, 1104111882, 37, 1162094570, 25, 1834756768, 25, 1161206971, 41, 1461542333, 36, 1351455139, 25, 1164259222, 23, 1573541799, 43, 1948171999, 38, 1329379210, 25, 1647131470, 27, 1130713188, 39, 1346341512, 34, 1278505642, 25, 1098060831, 23, 1763601892, 43, 2007206891, 38, 1222056971, 25, 1761693298, 27, 1150026506, 39, 1413847998, 34, 1320063251, 25, 1510531455, 23, 1241666862, 43, 1542159562, 38, 1333595404, 25, 1460329179, 27, 1271319628, 39, 1240615931, 34, 2095619675, 26, 1726357825, 23, 1368725366, 43, 1933201492, 38, 1516563765, 25, 1665330049, 27, 1960643378, 40, 1949125791, 35, 2134868488, 26, 1946852873, 24, 1191393816, 42, 1932984647, 37, 1742099407, 25, 1342475898, 27, 2117289142, 40, 1756971548, 35, 1782027591, 26, 1348227099, 23, 2061019614, 43, 1662485770, 37, 1732230484, 25, 1699406358, 27, 1682118878, 40, 1419432477, 35, 1812124027, 26, 1717062027, 23, 1591423248, 43, 1259968295, 37, 1700214768, 25, 1875717852, 27, 1552702688, 40, 1623033404, 35, 1122377684, 25, 2031252957, 23, 1085991863, 43, 1296520270, 38, 1281895460, 25, 1092310081, 27, 1768198646, 39, 1712813329, 34, 2080217980, 26, 1230065410, 24, 1935185267, 42, 0, 0, 1393063754, 23, 1777138492, 23, 2000171960, 46, 0, 0};
const int CONV_WEIGHT_POS[] = 
{0, 216, 216, 72, 288, 128, 416, 144, 560, 512, 1072, 288, 1360, 1024, 2384, 288, 2672, 2048, 4720, 576, 5296, 4096, 9392, 576, 9968, 8192, 18160, 1152, 19312, 16384, 35696, 1152, 36848, 16384, 53232, 1152, 54384, 16384, 70768, 1152, 71920, 16384, 88304, 1152, 89456, 16384, 105840, 1152, 106992, 32768, 139760, 2304, 142064, 65536};
const int CONV_BIAS_POS[] = 
{0, 8, 8, 8, 16, 16, 32, 16, 48, 32, 80, 32, 112, 32, 144, 32, 176, 64, 240, 64, 304, 64, 368, 64, 432, 128, 560, 128, 688, 128, 816, 128, 944, 128, 1072, 128, 1200, 128, 1328, 128, 1456, 128, 1584, 128, 1712, 128, 1840, 128, 1968, 256, 2224, 256, 2480, 256};
const int CONV_WEIGHT_SHAPE_POS[] = 
{0, 4, 12, 4, 24, 4, 36, 4, 48, 4, 60, 4, 72, 4, 84, 4, 96, 4, 108, 4, 120, 4, 132, 4, 144, 4, 156, 4, 168, 4, 180, 4, 192, 4, 204, 4, 216, 4, 228, 4, 240, 4, 252, 4, 264, 4, 276, 4, 288, 4, 300, 4, 312, 4};
const int CONV_BIAS_SHAPE_POS[] = 
{4, 1, 16, 1, 28, 1, 40, 1, 52, 1, 64, 1, 76, 1, 88, 1, 100, 1, 112, 1, 124, 1, 136, 1, 148, 1, 160, 1, 172, 1, 184, 1, 196, 1, 208, 1, 220, 1, 232, 1, 244, 1, 256, 1, 268, 1, 280, 1, 292, 1, 304, 1, 316, 1};
const int CONV_QUANTIZATION_FACTOR_POS[] = 
{0, 8, 8, 8, 16, 8, 24, 8, 32, 8, 40, 8, 48, 8, 56, 8, 64, 8, 72, 8, 80, 8, 88, 8, 96, 8, 104, 8, 112, 8, 120, 8, 128, 8, 136, 8, 144, 8, 152, 8, 160, 8, 168, 8, 176, 8, 184, 8, 192, 8, 200, 8, 208, 8};
const int CONV_STRIDE_POS[] = 
{5, 2, 17, 2, 29, 2, 41, 2, 53, 2, 65, 2, 77, 2, 89, 2, 101, 2, 113, 2, 125, 2, 137, 2, 149, 2, 161, 2, 173, 2, 185, 2, 197, 2, 209, 2, 221, 2, 233, 2, 245, 2, 257, 2, 269, 2, 281, 2, 293, 2, 305, 2, 317, 2};
const int CONV_PAD_POS[] = 
{7, 4, 19, 4, 31, 4, 43, 4, 55, 4, 67, 4, 79, 4, 91, 4, 103, 4, 115, 4, 127, 4, 139, 4, 151, 4, 163, 4, 175, 4, 187, 4, 199, 4, 211, 4, 223, 4, 235, 4, 247, 4, 259, 4, 271, 4, 283, 4, 295, 4, 307, 4, 319, 4};
const int CONV_ACTIVATION_FUNC_POS[] = 
{11, 1, 23, 1, 35, 1, 47, 1, 59, 1, 71, 1, 83, 1, 95, 1, 107, 1, 119, 1, 131, 1, 143, 1, 155, 1, 167, 1, 179, 1, 191, 1, 203, 1, 215, 1, 227, 1, 239, 1, 251, 1, 263, 1, 275, 1, 287, 1, 299, 1, 311, 1, 323, 1};
const int MATMUL_WEIGHT_POS[] = 
{207600, 512};
const int MATMUL_BIAS_POS[] = 
{2736, 2};
const int MATMUL_WEIGHT_SHAPE_POS[] = 
{334, 2};
const int MATMUL_BIAS_SHAPE_POS[] = 
{336, 1};
const int MATMUL_QUANTIZATION_FACTOR_POS[] = 
{216, 8};
const int MATMUL_TRANSA_POS[] = 
{337, 1};
const int MATMUL_TRANSB_POS[] = 
{338, 1};
const int MATMUL_ACTIVATION_FUNC_POS[] = 
{339, 1};
const int TRANSPOSE_PERM_POS[] = 
{328, 4};
const int RESHAPE_SHAPE_POS[] = 
{332, 2};
const int SOFTMAX_AXIS_POS[] = 
{340, 1};
const int AVERAGE_POOL_KERNEL_SHAPE_POS[] = 
{324, 2};
const int AVERAGE_POOL_STRIDES_POS[] = 
{326, 2};
const int AVERAGE_POOLING_DIVISOR[] = {1908874353, 34};
const unsigned char IMAGE_DATA[] = {

};

const int WEIGHT_INT32[] = {
0x306e, 0x2279, 0x5b7d, 0x3dbb, 0x533b, 0x2fc4, 0x21da, 0x5056, -0x78, -0x2e, -0xb4, 0x1d4, -0x12, 0x825, 0x471, 0x4ca, -0x8b4, 0xaa5, -0x28a, 0x46f, 0x624, 0xe7, -0xac5, 0x12fc, 0xbdf, -0x3d, 0xfd0, 0x7aa, -0x119c, -0x62, 0x13c7, -0x17c, -0x111, 0x8af, 0xd28, 0x4c, 0x158b, 0x1c8, 0x5e, 0xc72, 0x776, -0x966, -0x12a, 0x1772, -0x4af, -0x5a9, 0x792, 0xa41, -0x335, 0x96a, -0xa83, -0xa59, 0x6ad, 0x356, -0x10d, -0x141b, 0x12f0, 0x2ff, -0x4c3, -0x42, -0x2272, -0x7a, -0x610, 0x461, -0xa81, -0xd9, -0xf3b, -0x1e4, 0x46b, 0xb4a, 0x4f, 0x8fa, -0x143b, 0x437, -0x2112, 0x790, -0x488, -0xc19, 0x145, -0xbb4, -0x71c, -0x657, 0x4a9, -0x482, 0x767, 0x5dd, -0x1b5, 0x685, -0x36, -0x1e0, -0x97, 0x29c, 0x53, 0x471, -0x35d, -0x3b8, -0x6e, -0x11, -0xb3, -0x1ea, 0x466,
-0x58e, 0x93a, 0x26, 0x72b, 0x56, -0x35c, -0xc7, -0xbc, -0x21, 0xd1b, -0x50b, -0x79a, 0xc8b, 0x649, 0x448, 0x496, 0x217, -0x113, -0x8ff, 0x5dc, 0x466, 0x83b, 0x629, 0x562, -0x414, -0xeb, 0x439, 0x771, 0xa24, 0xd09, -0x29d, 0x37c, 0x923, -0x69c, 0x3b7, 0x25b, 0xaf0, 0x662, -0x532, -0x103, -0xbc4, 0x1311, 0x674, 0x87, 0xe23, 0x562, 0x1da, 0x929, 0x16e9, 0xbb, 0xe74, 0x13cd, 0xf7, -0xa1d, -0x130, -0x2de, 0x13db, 0xb05, 0x102b, 0x121b, 0x2fd9, 0x1616, 0xb3a, -0x626, 0x13fb, -0x207, -0x45e, -0x3ac, -0x236, 0x13ff, -0x28, 0x115c, 0x10b, 0x122, 0x1184, 0xeec, 0x179, 0xcfd, -0x49, -0xdb9, 0x618, 0x112e, -0x615, 0x39a, 0x9f0, 0x4ea, 0x1388, 0x9c1, 0xe3e, 0xd59, 0x16f, -0xcd3, -0x22eb, -0x461, -0x1b8d, 0x5e5, -0xa24, 0x1162, 0x1bcb, 0x13ed,
0x361, 0x540, 0xae1, 0x15fb, 0x4fc, -0x2d3, 0x199e, -0x231f, 0x1982, -0x2087, 0xeef, 0xa77, 0x769, 0x19a7, 0xd5f, 0xd49, 0x3c3, 0xaf8, 0xbcf, -0x9be, 0x1628, 0xdf9, 0x2574, -0x72f, 0x11dc, 0x111d, -0x62f, 0x1382, 0x1341, -0x9ae, 0x2129, 0x26d5, 0xf8a, 0x441, 0x172d, -0x23d, 0xe44, -0x67b, -0x96, -0xf9, -0x4d5, 0x5d4, -0x531, -0x19e, -0x2d9, -0xaf, -0x4cf, -0x3d0, 0x45b, -0x17a, -0x4e0, -0x831, -0x78, 0x21e, -0x219, -0x14f, -0x517, 0x1e5, 0x79f, -0x358, -0x428, 0x71d, 0x7d3, -0x2c, -0x32c, -0x49e, 0x682, 0xd29, 0xe6, -0x3c5, 0x137, -0x42, 0x6bb, 0x4ee, -0x41f, 0x1cf, -0x3ba, -0xba1, -0x13b, 0xa2b, -0x22, -0x1a5, -0x51d, -0x4ee, 0x73a, -0x304, -0x276, 0x6, 0x73, -0x65, -0x6a, 0x17c, 0x758, 0x5e2, -0xd2, -0x3ac, -0x1fd, 0x58f, -0x302, -0x143,
0x148, 0x2b, 0x50f, 0x1af, -0x21a5, 0x6cb, 0x330, 0xbfc, -0x3aa, 0x187, -0x710, 0x1c20, -0x14b4, -0x10d0, 0x8f3, 0x793, -0x5a7, -0x1adb, 0xb1, 0x844, -0x188, 0x41d, 0x40c, -0xde2, -0x66c, -0x9c3, -0x151d, 0x7ad, -0xb0d, -0x11c2, 0x20, 0x44, -0x11a, -0x126f, 0x1568, 0xd9a, 0x1047, -0x9fb, 0xcd6, 0xb6, -0x1ba7, 0xb64, -0x26f, -0x714, -0x18a5, -0x34e, -0xacd, 0x2630, 0xf5f, 0x126, -0x862, 0xb82, -0x917, 0x11ee, 0x591, -0x439, 0x2c0, -0xdc, -0x87f, -0x476, 0xf8f, -0xa13, 0x10b6, -0x242, 0x2c7, 0x3f8, -0x45, -0x79, 0x242, -0x18, 0x2f5, -0x155, -0x25, 0x10, 0x2d, 0x3cc, -0x6b, -0x190, 0x22e, 0x330, -0xee, -0x103, -0x6a, 0x301, -0x1b0, -0x15f, 0x2e1, 0x5, -0x39, -0x110, -0xd0, -0xcf, 0xf, -0x185, -0xf4, 0x6ae, -0x98, -0x1a0, 0x2a4, -0x104,
-0x38, -0xbd, -0x27, 0x274, -0xb7, 0x340, -0xb5, 0x313, -0xb9, -0x172, -0x284, 0x32f, 0x393, -0x12f, -0xfc, 0x495, -0x2f, 0x6, -0x1b, 0x3bb, -0xd0, 0x67, -0x127, 0x25, -0xb0, -0x75, -0x106, 0x95, -0xbd, -0x169, 0x6b, 0xcb2, -0x276b, 0x10d3, 0xb27, 0x1349, 0x195, 0x2020, 0x1ade, 0x1910, 0x726, -0x101e, -0x224c, 0xcf3, 0x7bd, 0x199a, -0x6e2, 0x981, 0x1eb, 0x1ae, -0x31f, 0x15e, 0xfce, 0x586, 0x5c, 0x958, 0x93, 0xcc1, 0x19f6, -0x1a80, 0xb41, 0xb9, 0xb27, -0xdc1, -0x2da2, 0x1018, 0x9c7, -0xb8b, -0x62c, 0xe1d, -0x1aeb, 0xf47, 0x11b0, 0x2b3, -0xec, -0x497, -0x1d3, 0x18b1, -0x2b0, 0xd8f, -0x1c37, -0x34d, 0x1c26, -0x8ac, 0x51, -0xd1b, 0xb5e, 0x14b8, -0x3f7, 0x87f, -0x3be, 0x1a4d, -0x6d8, 0xa55, 0x8fc, 0xf09, 0x29c, -0x1d6, -0x111, -0x125,
0xa0d, -0x387d, 0x7fe, -0x4fa, 0x12ee, 0x1deb, -0xb41, -0x1758, 0x26a, 0x101, 0x1dfc, 0xb3, -0xb28, 0xec6, 0x1263, -0xb0f, 0x12f9, 0x33, -0x2bb, 0x634, -0x9f, 0x1acc, 0xa3c, 0xe41, 0x814, 0x184, -0xcee, 0x63e, -0x271, -0x24d, -0x942, 0x16ef, -0x19ce, 0x801, -0x34f, -0x468, 0x1037, 0xe15, 0x6aa, 0xb19, 0x11ba, -0x4a9, 0xad3, -0x23b, 0x141c, 0x822, 0x1690, 0x41d, 0x7d0, 0x78d, -0x1a7, 0x681, 0xbf4, 0x98a, 0xff0, 0xfaf, 0x1070, 0x1685, 0x63e, 0x31d, -0x1df, -0x28, 0x262, -0x7f, -0x23, 0xd, 0x2b5, -0x2c, 0x239, -0x12a, -0x92, -0x38, 0xd4, 0x2c1, -0x23, 0x1a, 0xb4, -0x12f, -0x121, -0x23, -0x343, 0x2b, -0x80, -0x246, -0x68, 0x90, -0x7f, 0x5, -0x276, -0x71, 0x12, -0x4a, 0xe9, 0x2bd, 0x1e2, -0x64, 0x226, -0x2fe, -0x140, -0x164,
-0xc, -0x138, -0x48, -0x151, -0x110, -0x9a, -0x109, -0x5e, -0x10c, 0xb8, 0x40b, -0xb6, -0x9b, -0x13, 0xe4, 0x2c1, -0xcd, 0x21a, -0xe0, 0x201, -0x19e, -0x1aa, 0x63, -0x2d, -0x3a, -0x35, -0xc0, -0xe4, 0x313, -0x15d, -0x9c, -0xa9, 0x24, -0x10, 0x25, -0x9, -0x161, -0x4, 0x38a, -0xa0, 0x3, 0x5b, -0x55, -0x15e, -0x60, -0xcb, -0x113, 0xdf, -0x123, 0x3ca, 0x55, -0x15d, 0x2b4, -0xf, 0x181, -0x49, -0x17d, -0xc8, -0x20, -0x34, -0x46, 0x391, -0xfb, -0xf7, -0x94, 0x44, -0x25, -0x6c, -0x3a, -0xbc, 0x3e, 0x29, -0xbc, -0x7, -0x46, 0xa2, 0x27b, -0xe7, -0x198, 0x52, -0x20, -0x31, -0x2b, -0x1ad, 0x95, 0x5, -0x72, -0x206, -0xce8, 0xb58, 0x13aa, -0xb69, -0x2a, 0xfd7, -0x22ab, 0x1dde, 0x90f, -0x347, 0x1a5, -0x31a,
-0x5c1, -0x719, -0x17f9, -0x24e1, -0x6c, -0x258, -0x1b62, -0x434, 0x1f6f, -0x32e, -0x4fe, 0x5, 0x1923, -0x1df, -0x12f, 0x74, -0x3bb, 0x143a, -0x4525, -0xb60, 0xa69, 0x242, -0x21ef, -0x14e, -0x3ef5, -0x863, 0x17b8, -0xa5, 0x1d04, -0x358, 0x1376, 0x2ad, -0x963, -0x1030, -0x4fb, -0x17d3, 0x4a, 0x1283, -0x5b9, -0xca, 0x6eb, -0x1ea, -0x6e7, -0x44b, -0x520, 0x80, 0x41a, -0x1c8a, 0x1e6, 0x930, 0x105, 0xa0f, 0x285, -0x2721, 0x1b86, -0x2001, -0x1af, 0xb83, -0x5a5, -0x5e4, 0x351, -0x215, -0x1ea, 0x253, -0x354, 0x1550, -0x5b, 0x1282, 0x53, -0x6da, 0xc6, 0x579, 0x111, -0x3ea, -0x174, -0x69a, -0x3cb, -0x282, -0x3ab, -0x589, -0x273e, -0x1891, -0x33b, 0x16b9, 0x8bb, 0x1a7, -0x175, 0x1249, 0x106b, 0x2e5, 0x25bd, -0x292, 0x17f8, -0x29f, 0x2dc, -0x182, -0xe4, -0x1e4, -0xbf, -0x13d,
-0x3fb, -0x67b, 0xaf, 0xc2d, 0xf1, -0xb2, 0x218, -0x23c, -0x760, 0x1da, -0x1907, -0x1920, -0x2b5, -0x5c4, 0x44a, -0xab, -0xa7, -0x48, -0x24, -0x84, -0xc4, -0x3e, -0x1e5, -0x1b6, -0xef, -0xf5, -0x77, -0xa9, -0xdf, -0xec, -0x60, -0x244, -0xa5, -0x96, 0x10, -0xb3, -0x179, -0xc3, -0xa2, -0xc5, -0x10c, -0x97, -0xa7, -0x8f, -0xa4, -0x9d, -0x75, -0x139, -0x12e, -0x4b, -0x177, -0x98, -0x12f, -0x134, 0x1a7, -0xc7, -0x1ff, -0xd8, -0x1b9, -0x4, -0x6f, 0x81, -0x91, 0x112, -0x99, 0x12, -0xca, -0xea, -0x1e, 0x1e, -0xa8, -0xcc, -0xbf, -0x159, 0x6, -0x28, -0x11a, 0x2b, 0x8, -0x137, 0x22, -0x102, 0x1db, -0x18f, -0xcc, -0x6b, -0xac, -0x7e, 0xd, -0x125, -0xc1, 0xa, -0xe7, -0x152, -0xa0, -0x199, -0x79, -0x5c, -0x4e, 0xcb,
-0xf, -0xa2, -0xa4, -0xa9, -0xb5, -0xbe, -0x95, -0x178, 0x57, -0x11, -0x9e, -0x1f2, -0xa5, 0x3, -0x9a, -0x103, 0x41, 0x2e, -0x1af, -0xfd, -0x1ca, -0xb4, -0x64, -0xbb, -0x89, -0xe4, -0xaf, -0x109, -0xfc, -0xab, -0x68, -0x50, -0x21, -0xac, 0x69, -0x73, -0xde, 0x8, -0xb, -0x108, -0xf3, -0xc4, -0x13a, 0x15c, -0x13a, -0x3d4, 0x89, -0x432, -0x99, -0x35c, 0x5b7, -0x559, -0x8d5, -0x1e5, -0x579, -0x1f9, 0x125, -0x15d2, 0xa0d, 0xff7, -0xe0, -0x2ad, -0x296, -0x4b8, -0x6a8, -0x1b4, -0x838, -0x5ef, -0x3c2, -0x320, -0x497, -0x5e9, -0x529, -0x502, 0xca5, -0x418, -0x474, 0x1d80, -0x905, -0x381, -0x3be, -0xbfd, -0x83f, -0x35, 0x2e, -0x69, -0x4d3, -0xd4, -0x371, -0x18d, 0x5e, 0x12c1, -0x251, 0x150f, -0x42, -0x4d7, -0x2da, -0x91b, -0x4e6, 0x8f,
-0x263, -0xef, -0x1ef, 0x593, -0x422, -0x40, -0x305, -0x31a, -0x4be, -0x320, 0xf63, -0x432, 0x47, -0xe9, 0x9a2, -0x4a2, -0x5ff, -0x8d5, -0x82d, -0x691, -0x37e, 0x13a6, -0xfc, -0xa33, 0x25fb, -0x26b, -0x94e, -0x750, 0x9d4, -0x7e5, -0x97c, -0x10a6, -0x1a8, -0x999, -0x696, -0x7f, -0x3a6, -0x213, 0x192, -0x7d4, 0x184, 0x2db, -0x85, 0xc6b, -0xe70, 0x1fc, 0x64, -0x2c2, -0x470, -0x882, 0x413, 0x705, -0x849, -0x279, -0x757, -0x82, -0x383, 0x23d2, 0x1da8, 0xa8, -0x567, -0x5eb, -0x226e, -0x9c, -0x627, -0x1cc, -0x3fb, -0x4f, -0x6b1, 0x21fd, 0xcf6, 0x12, -0xf1, -0xdb, -0x78, -0x107, -0xf8, -0xe2, -0x128, -0xba, -0xc0, -0x143, -0xe3, -0xeb, -0x5, -0x20e, 0xc1, -0x123, -0xd5, -0xe4, -0xc7, -0xd4, -0xfc, -0xb2, -0xac, -0xfd, -0xcc, -0xb5, -0x77, -0x10a,
-0xd9, -0x11f, -0x25e, -0xee, -0xd4, -0x3a, -0xab, -0xe7, -0xe2, -0xbc, -0xde, -0x177, -0x86, -0xfe, -0xe2, -0xd0, -0xdc, -0xe0, -0x4c, -0x287, -0x5, 0x230, -0xc7, -0xc6, -0xec, -0x114, -0xff, -0x6f, -0xdf, -0x100, -0xf5, -0x3f, -0xbd, -0xe8, -0xd7, -0xd1, -0xca, -0x12a, -0x1c2, -0xd8, -0xb8, -0xc1, -0x250, -0xbc, -0xaf, -0xa7, -0xd7, -0xb5, -0xc8, 0x22b, -0x111, -0xb7, -0x29a, -0xf1, -0x1d0, -0xeb, -0x6, 0x3a, -0x217, -0xb6, -0xe6, -0x2eb, -0xb4, -0x21e, -0xd5, -0xae, 0x2, -0xcd, -0x5c, -0x159, -0xff, -0xdf, 0x1a7, 0x46, -0x69, -0xcb, -0xd6, -0xf1, 0x134, -0x119, -0x1d0, -0xfc, -0xd0, -0xfd, -0xb6, -0x324, 0x2b, -0x58, -0xcd, -0xde, -0xc5, -0x10f, -0xc5, -0xe1, -0xfb, -0xe3, -0xae, -0x309, -0x22b, -0x12b,
-0x10a, -0xd90, -0x9a, -0x151, -0x1d8, 0x751, -0x127, 0x17, -0x2de, -0x1ab, -0x253, -0x17d9, -0x35f, -0x19d, -0x21b, 0x18a9, -0x347, 0x64, 0xd8, -0x164, -0x258, -0x7a, 0xfc9, -0x233, -0x4b4, -0x1dd, 0x10b, -0x3b1, -0x27c, -0x17a, -0x2c4, -0x34d, -0x175, -0xa6b, -0x2f9, -0x30e, -0x24c, -0x38a, -0x2f5, -0x36b, -0x214, 0x25, -0x282, -0x226, -0xfb, -0x15f, -0x104, -0xfc, 0x86d, -0x132, -0x2bb, -0x2d, 0xaec, -0x1e7, -0x122f, -0x1f9, -0x18a, -0x2b1, -0x269, -0x2cd, -0x262, -0x210, -0x126, -0x100, -0xfa, -0x386, -0x357, -0x337, -0x3fd, 0x7b0, -0x254, -0x1c3, 0xcb, 0x72, 0x442, 0x1dd, -0x1a3, -0x2d, -0x62, -0x389, -0x21f, 0xb8, -0x2d5, 0xeb2, -0x290, 0x38f, -0x1f6, -0x16d, -0x293, -0x179, 0x5f4, -0xf1, -0x1f3, -0x329, 0x79, 0x1c, -0x21e, 0x9df, 0x1d7, -0x2c5,
-0x44, -0x57, 0x22, -0x1dd, -0x4d1, -0xe, -0x3c7, -0x8f, -0x33e, -0xc, -0x564, -0x149, -0x120, 0x750, -0x249, -0x230, -0x103, -0x23c, 0x67e, -0x22a, -0x22d, 0x554, -0x166, -0xf4, 0x46, -0x7da, 0x7a, -0xd4, -0xc2, -0x20d, -0xab, -0xa7, -0x41, -0x57, -0xcc, -0xe7, -0xd6, -0xe1, -0xd5, -0x2a, -0xa9, -0xc2, -0x90, -0x160, -0xe0, -0x27, -0x28, -0xcd, -0x6a, -0xc1, 0x107, -0xc8, -0xb5, -0xa9, 0x23, -0xb8, -0xb0, -0xa8, -0xb2, -0x9f, -0xb9, -0xf6, -0xd5, -0xa5, -0xbd, -0x9f, -0xcb, -0x9d, -0xd7, -0x80, -0x8d, -0xbc, -0xcd, -0xa3, -0x97, -0xce, -0x20, -0xa0, -0xb6, -0xcf, -0x2f2, -0x10a, -0x160, -0xc2, -0xb4, -0x9b, -0xde, -0xac, -0xaf, -0xc8, -0xdc, -0xee, -0xd8, -0x9c, -0xb9, -0x92, -0xd6, -0x1a7, -0xc3, -0xd7,
-0x19, -0x2a, -0x227, 0x122, -0xc5, -0xbe, -0xa7, -0xc2, -0x9c, 0x1c, -0xaa, -0x260, -0xec, -0x11a, -0x98, -0xbc, -0xbb, -0xb0, -0x8e, -0xe0, -0xa0, -0xbc, -0x2c, -0xc0, -0xaa, -0x293, -0x2d3, -0xb3, -0xd4, -0x25d, -0xc, -0xdf, -0x5c, -0xf9, -0xda, -0xb6, -0xae, -0xcc, -0xd0, -0xca, -0x101, -0xfb, -0xa2, -0xb7, -0xcd, -0xb9, -0x15c, -0xbb, -0x99, -0x117, -0x9a, -0xcb, -0x68, -0x63, -0x45, -0x427, -0x363, -0xe1, -0x300, -0x2d2, 0x198, -0x50b, -0x2df, 0x563, -0xff, 0x158, -0x295, -0x2e2, -0x440, -0xbf, -0x54, 0x571, -0x250, -0x222, -0x3af, -0x38a, 0x35e, 0xef, -0xc6, -0x11b, 0x500, 0xb8, 0xaf, -0x26a, -0x61, -0x2ff, 0x96f, 0x1, -0xea, -0xfb, -0x3b7, -0x497, -0x1dd, -0x1e0, -0xef, 0x38, 0x20d, -0x254, -0x11d, 0x20,
-0x31d, -0x16e, -0x279, -0x46e, -0x4e, -0x164, -0x116, -0x243, 0x4f1, -0x238, 0xbb, -0x47, -0x28f, -0x84, -0x3cb, -0x11f2, -0x145, -0x30, 0x7b8, 0x1b5, 0x55f, 0x67, -0x149, -0x1e1, 0x1320, -0x1bb, 0x642, -0x176, 0x432, -0x2c4, -0x1b1, -0x1bf, -0x92, -0x1a9, -0x275, -0x332, 0x43c, -0x304, -0x1ae, -0x2cf, -0x312, -0x4e5, -0x758, 0x546, -0x127, 0x241, -0x40a, 0xfe7, -0xbe, -0x2b4, -0x2f, -0x284, -0x18c, -0x252, -0x1c2, 0x65e, -0x14c, 0x5f, -0x315, -0x2f0, -0x30, 0xa37, 0x62, 0x566, 0x5a, -0x123, -0x2c6, -0x177, 0x428, 0x340, -0x2a, -0x2c, -0x3d2, 0x3f1, -0x57, -0x15f, -0x13e, -0x2f6, -0xb4, 0x607, -0x2c1, -0x1aa, -0x2bc, -0xbf, -0xeb, -0x107, -0xda, -0xd2, -0x12c, 0x1ca, -0xdc, -0xa1, -0x100, -0x7e, -0xe6, -0xf6, -0xc5, -0x7d, -0xeb, -0x2c8,
-0xaf, -0xf6, -0xaf, -0xea, -0x20, 0x3e, -0xc3, -0xc4, -0x20, 0x27, 0x23, -0xda, -0xd7, -0xed, -0x10a, -0xb7, -0xd7, -0xca, -0xd2, -0xc3, -0xce, -0xea, -0xeb, -0xe9, 0x4, -0xf6, -0x106, -0xbb, -0xc4, -0xc6, -0xc9, -0xa4, -0xe8, -0xee, -0xf8, -0xc7, -0x1f2, -0x10e, -0x8, -0xec, -0xd3, -0xe8, -0x129, 0x147, -0xeb, -0xb0, 0x80, -0x2ed, -0x347, -0xb, -0xee, -0xba, 0xbe, -0x83, -0x93, -0x103, -0x26, -0xb4, -0xe1, -0xf0, -0xcd, -0x3, -0xd6, -0xb2, -0x15a, -0xa1, -0xd5, -0xb3, -0xb7, -0xe4, 0xe9, 0x1fd, -0xe0, -0x96, -0xbe, 0x85, -0x104, -0x117, -0xec, -0xb0, -0xca, -0xbd, -0xf2, -0x5e, -0x7e, -0x87, -0xed, -0xb8, -0xde, -0x289, -0xa6, -0x125, -0x5f, -0xdb, -0xbd, -0xf0, -0x7d, -0x30, -0xf5, -0xdc,
-0x10c, -0x115, -0xf4, -0xcc, -0xdd, -0xc8, -0xb2, -0x3a, -0xdd, -0xd3, -0xac, -0x20a, -0x1e1, 0x914, -0x26d, -0x1e6, -0xbb, 0x103f, -0x68f, 0x6d2, 0xf3f, 0x130f, -0x28f, 0x330, -0x4eb, 0x73a, 0x5d0, -0xff, 0x5c8, 0x194, -0x1b7, -0x2b0, -0x95, 0xc12, -0x12d, -0x217, -0x16e, -0x5cc, 0x878, 0xff, -0x156, -0x268, 0x6a, 0x83e, -0x47c, -0x2e, 0x103, -0x4, -0x37c, -0x38d, 0x89e, -0x32f, 0x15b, -0x2dd, 0xdfb, -0x5a0, -0x21b, -0x459, -0x98, 0xf2, -0x4ce, 0x29, 0xca7, 0x1512, 0x85, 0x974, -0xc, -0x328, -0x3bf, -0x89, 0x881, -0x2af, 0x1eb, 0x1ca, -0xf8, -0x2a0, 0xac1, -0xca, -0x92, 0xfd, 0xdbb, -0xab, -0xd9, 0x82d, -0x12a, 0x585, -0x38, 0x180a, 0xac, 0x5a3, -0x31e, -0x51d, 0x1e, 0x1e, -0x4ef, -0x1ae, 0x931, -0x1f8, 0x3b, -0x21b,
0x145, -0xe1, 0xd0a, -0x265, -0x2d3, 0xf5, -0xbc, -0x7b, 0xd04, -0x346, -0x215, -0x163, -0xb7, -0x1b9, -0x66d, -0x53, -0x70, -0x3b, -0x1fc, -0x78, 0x2a1, 0xf0, 0x160d, 0x29b, -0x213, -0x30e, 0x3da, -0x34f, -0x27b, -0x33e, -0x1ca, 0x12a, 0x2, 0x9bb, 0x1da, 0xa4, -0x5f, 0x1c9, -0xd4, -0xd7, 0x63, -0x96, -0xbf, -0xcb, -0xdc, 0x108, -0x8f, -0xb0, 0xa6, 0x19e, -0xf4, -0xb, -0xb1, -0xca, -0x1a0, -0x105, -0x16f, -0x2f, -0xc4, -0xc5, -0xc4, 0x1d, -0xe3, -0xf5, -0xf5, -0x166, -0xa9, -0x84, -0x109, -0xbc, -0x6c, -0x59, -0xe9, -0xe1, -0x5f, 0x162, -0xae, -0x9e, -0x32, -0xe1, -0xbf, -0xd9, -0x2b6, -0xc1, -0xa1, -0xd3, -0xfc, -0x1c, 0xa6, -0xd2, -0x70, -0x286, -0x72, -0xd, -0xfe, -0xc0, -0xdd, -0xed, 0x4c, -0xea,
-0x248, 0x123, -0xeb, -0xb9, -0xe, -0xf2, -0xd4, -0x9, -0x150, -0xb3, -0xcd, -0x81, -0xcd, -0x398, -0xef, -0x1d0, -0x34, 0x8, -0xbb, -0xc9, -0xac, -0x13e, -0x9f, -0x12f, -0x3f, -0xd2, -0x4c, -0xa6, 0x182, -0xd3, -0x1e2, -0x4e, -0xe0, -0x19, -0xf3, -0xe1, 0xca, -0xe2, -0xb9, -0xe1, -0x3c, -0xa8, -0xef, -0xf3, -0x113, 0xf9, -0xad, 0x14b, 0xcd, -0x3f, 0x10f, 0x121, -0x100, -0xea, 0x4a, -0xbb, -0xbf, -0x3f, -0xb6, -0x46, 0xa2, -0x3, 0x15f, -0x16, -0x11b, 0x2b, -0x22d, 0x1a7, -0x2307, -0x4ef, -0x301, -0x938, -0x3a5, -0x36e4, -0x56, -0xc47, -0x4e1, -0x2d9, -0x77b, 0x34, -0x53d, 0x162, -0x15, 0x54c, 0x269, -0x23b, -0x3aa, -0x2e6, -0x356, 0x2f6, -0x4e7, -0x4bd, 0x11, -0x270, -0x2a1, 0x3a8, -0x1c5, -0x1a4, -0x6e1, 0x51,
-0xfd, -0x15a, -0x1ba, -0x2bf, -0x268, 0xed, 0x39f, -0x13, -0x2b20, 0x13ec, -0x45b, 0x29f5, 0x5ca, 0x215, 0x15, -0x9a5, -0x114, -0x192, -0xad0, -0x104, -0xb7, -0x405, 0x4f2, -0x287, -0x5cb, 0x11b, -0x34a, -0x2bc, 0x512, 0x1bed, -0x16, -0x344, 0x13a, -0x333, -0x56b, 0x1f2, -0x3bd, -0x31a, 0x1534, -0x11b9, -0x4a3, -0x6e7, -0x359, -0x5d4, -0xbb, -0x457, -0x1006, 0x172, -0x36d, -0x11dd, -0x546, -0xe0, -0x1a7, -0x262, -0x2e5, -0xd0, -0x416, 0x5c2, -0x977, -0x1d9, 0xc8b, -0x83f, 0x2690, -0x160, -0x601, 0x15b2, -0x13da, 0x22b, -0x672, -0x280, 0x9af, -0x3b4, -0x1f9, 0x21a, -0xe, 0xe9, -0x24f, -0x4e8, -0xb62, 0x202, 0x40, 0x660, -0x49f, -0x472, -0x285, -0x6cd, -0x11, -0x70, 0x1a2, -0x445, 0x3, 0x7f, -0xf5c, -0x54e, -0x4da, -0xb4f, 0x669, 0xe3, -0x52c, -0x46b,
0xcbf, -0x2ac2, -0xbbb, 0x5f0, -0x6d, -0x42b, -0x1fa, -0x4fa, -0x44b, -0x309, 0x141, 0x976, 0x2d6, 0x1bc, -0x5f4, 0x2e6c, -0x6d7, -0x18a, -0x15f, -0x433, -0x74, -0x43d, -0x9fd, 0x1aa, -0x1f6, -0x477, 0xd, -0x303, 0xa9d, -0x2e0, -0x111, 0x52, 0x18a, 0x24c, -0x1d8, -0x3bf, -0x381, -0x586, 0x284, -0x2a7, -0x6c8, -0x39f, -0x4c8, -0x12fa, -0x3db, -0x333, -0x20d, -0x164, -0x6a2, -0x4ee, 0x85, -0x7f6, -0x2c5, 0xea, -0x5f7, -0x9a, -0x45e, -0x486, -0x6a7, -0x1b5, -0x2c78, -0x182, -0x547, 0x14b, -0x7ba, 0x7, -0x53c, 0x975, -0x10f9, -0x141, -0x272, -0xf2, 0x15e, -0x3ac, -0x745, 0x25e6, -0x1fa, -0x701, -0x609, -0x982, -0x9, -0x4e7, -0x4a9, -0x499, -0x457, -0x2ce, -0x612, 0x205, -0x1fc, 0x14c, -0x1ef4, -0x46, -0x39c, 0xce, -0x3b6, -0x245, -0x198, 0x459, -0x202, -0x5b,
-0x9f5, -0x262, -0x5ae, -0x2b93, -0x4a1, -0x59a, -0x334, -0x18d, 0x28f1, -0x61, 0x95, -0x145, 0x62, -0xe, 0x942, -0x2b3, -0x115, -0x4e5, 0x101, -0x4c5, -0xaf, -0x276, 0x143, 0x17, 0x73, -0x4b, -0x65, -0x60, -0x52, 0x34, -0x46, -0x6a, -0x49, -0x65, -0x56, -0x55, -0x52, 0x17, -0x58, 0x6, -0x21, -0x6b, -0x33, -0x4a, -0x6f, 0x2, -0x5a, -0x65, -0x4e, -0x59, -0x64, 0x33, -0x5f, -0x4d, -0x50, -0x3b, -0x6f, -0x54, -0x73, -0x55, -0x69, -0x4c, -0x1, -0x58, -0x133, 0x57, -0x4e, 0xda, -0x4, -0x1f, -0x6b, -0x44, -0x67, -0x3e, -0x5e, -0x64, -0x66, -0x5f, -0xd, -0x58, -0x56, -0x30, -0x57, -0x5b, 0x81, 0x180, -0x53, -0x5d, -0x39, -0x14, 0x65, 0x7, -0x5c, -0x7b, 0x53, 0xa, -0x81, -0x67, -0x92, -0x72,
-0x63, -0x54, 0x66, -0x1c, -0x4d, 0x61, -0x52, -0x69, -0x75, -0x53, -0x62, -0x54, -0x31, 0x3, -0x58, -0x53, -0x1f, -0x75, 0x6, -0x63, -0x4b, 0x90, 0x3f, 0x3, -0x71, -0x37, 0x7e, -0x5c, -0x50, -0x1a, -0x5d, -0x21, -0x5a, -0x3d, -0x73, -0xa, -0x53, -0x1, -0x6e, -0x3c, -0x5f, 0x32, -0x54, -0x45, -0x7, -0x4e, -0x69, -0x2c, 0xab, -0x50, -0x5c, -0x59, 0x57, -0x2b, -0x89, -0x68, -0x1f, 0x18, -0x43, 0xa, -0x67, -0x75, -0x72, -0x72, -0x53, -0x67, -0x24, 0x2f, -0xf, 0x5, -0x47, 0x35c, -0x39, -0x5a, -0x60, -0x52, -0x66, -0x4a, -0x5c, -0x28, -0x7d, -0x36, -0x6e, -0x4f, -0x9, -0x55, -0x57, -0x77, -0x4d, 0x2, -0x59, -0x53, -0x64, -0x38, -0x5, -0x57, -0x5c, -0x6b, -0x5c, 0x96,
-0x5d, -0x5c, -0x30, -0x5c, -0x52, -0x76, -0x67, -0x50, -0x4d, -0x33, -0x58, -0x68, -0x55, -0x82, -0x20, -0x65, 0xbf, -0x51, -0x5a, -0x27, -0x5a, -0x66, -0x1c, -0x24, -0xf0, -0x61, -0x46, -0x5e, -0x25, -0x6d, -0x2c, 0xfe, -0x67, -0x63, -0x57, -0x6a, -0x47, -0x72, -0x3f, -0x4d, -0x61, -0x59, -0x52, -0x5, -0x3a, -0x12, 0x1f, -0x54, -0x78, -0x49, -0x4f, -0x3d, -0x4b, 0xb, -0x47, -0x4f, -0x6d, -0x87, -0x57, 0x20, -0x48, -0x91, -0x5c, -0x5e, 0xab, -0x65, -0x5, -0x56, -0x46, -0x50, -0x4c, -0x7d, -0x47, -0x49, -0x2d, -0x57, -0x6b, -0x79, -0x1c, -0x27a, -0x3c6, -0x3b4, -0x35a, -0x2d2, -0x381, -0x285, -0x361, -0x303, -0x349, -0x262, -0x373, -0x24b, -0x6e1, -0x33b, -0x312, -0x2ea, -0x389, -0x27e, -0x2c7, -0x287,
-0x577, -0x3a7, -0x3b7, -0x2ea, -0x277, -0x2a2, -0x2b9, -0x20c, -0x2ff, -0x29c, -0x37c, -0x213, -0x312, -0x4fa, -0x3c4, -0x2a9, -0x72a, -0x2d2, -0x659, -0x27a, -0x395, -0x2bf, -0x787, -0x208, -0x371, -0x25d, -0x258, -0x29f, -0x45a, -0x63c, -0x25d, -0x2db, -0x34b, -0x72f, -0x26b, 0x387, -0x2ed, -0x37c, -0x2fd, -0x289, -0x380, -0x263, -0x2e0, -0x386, -0x323, -0x2b0, -0x2e7, -0x2fe, -0x2d2, -0x322, -0x357, -0x2c1, 0x2c5, -0x2df, -0x51b, -0x29f, -0x3ca, -0x36c, -0x2f5, -0x332, -0x669, -0x25f, -0x2f9, -0x286, -0x325, -0x33f, 0x76b, -0x7f8, -0x4aa, -0x411, -0x382, -0x2b7, -0x325, -0x26f, 0x3c9, -0x334, -0x337, -0x4e2, 0x2d5, -0x2e3, -0x24b, -0x2ba, -0x305, -0x1d6, -0x426, -0x361, -0x219, -0x2a3, -0x4d9, -0x2a9, -0x350, -0x30d, -0x2e9, -0x2e2, -0x290, -0x2e6, -0x31c, -0x31d, -0x2bd, -0x355,
-0x2c6, -0x317, -0x329, -0x363, -0x2af, -0x2ad, -0x254, -0x35d, -0x322, -0x2cb, -0x36d, -0x32f, -0x3ba, -0x2da, -0x32f, -0x495, -0x2ac, -0x5b4, -0x25f, -0x2f7, -0x36d, -0x2f7, -0x58, -0x2a9, -0x260, -0x2c0, -0x5b4, -0x35f, 0x625, -0x2a6, -0x40f, -0x357, -0x373, -0x2ce, -0x242, -0x393, -0x38b, -0x28f, -0x309, -0x283, -0x2fc, -0x306, -0x383, -0x2f6, -0x326, -0x3f5, -0x2fa, -0x2b5, -0x448, -0x2bc, -0x520, -0x255, -0x33c, -0x29e, -0x271, -0x245, -0xfb, -0x35c, -0x304, -0x2c1, -0x32e, -0x327, -0x39d, -0x237, -0x33d, -0x2d9, -0x345, -0x3e6, -0x650, -0x2ec, -0x238, -0x2a0, -0x2a8, -0x27d, -0x366, -0x278, -0x2ca, -0x349, -0x2b8, 0x52, -0x87, -0x396, -0x334, -0x2ce, -0x27b, -0x213, -0x1df, -0x47c, -0x269, -0x311, -0x2f1, -0x282, -0x3fe, -0x568, -0x2dd, -0x2e7, -0x256, -0x294, -0x264, -0x275,
-0x2cb, -0x674, -0x287, -0x2ab, -0x2c6, -0x20c, -0x27e, -0x35d, -0x341, -0x2f1, -0x3a4, -0x5a0, -0x3bc, -0x400, -0x2d3, -0x32c, -0x2e0, -0x348, -0x36, -0x2ce, -0x293, -0x3a2, -0x24a, -0x27c, -0x27f, -0x2c2, -0x2be, -0x43a, -0x7d, -0x2af, -0x300, -0x34a, 0x5be, -0x3bd, -0x338, 0xedb, -0xedb
};

const char WEIGHT_INT8[] = {
0x26, 0x22, -0x1, 0x3, -0xe, 0x15, 0x1d, 0x46, 0x2f, -0x5d, -0x7b, -0x7f, -0x5d, -0x2a, 0x1, -0x14, -0x61, -0x58, 0x47, 0x66, 0x57, 0x57, 0xd, 0x29, -0x5, 0x1b, 0x1, -0x29, -0x44, -0x41, 0x6, -0x48, -0x24, 0x21, 0x29, 0x13, -0x16, -0x1, -0xf, -0x1e, 0x3, 0x20, -0xb, -0x1e, -0xb, 0x5a, 0x1e, 0x55, 0xc, 0x31, 0xc, -0x17, 0x15, -0x8, -0x37, -0x18, 0x8, 0x7, -0x8, 0x10, -0x9, 0x1f, 0x58, -0x43, -0x37, 0x1, -0x38, -0x25, 0xf, 0x6, 0x8, 0x10, -0x34, -0x2f, -0x19, -0x9, 0x10, 0x8, 0x11, 0x7, 0x1a, 0x47, -0x1f, 0x4c, 0x2a, -0x4e, 0x28, 0x2c, -0x4e, -0x5, 0x20, -0x55, 0x17, 0x16, -0x3c, -0x2, -0x1c, -0x5, 0x25, -0x11, -0x40,
-0x7, 0x1e, -0x6a, 0x3, 0x18, 0x20, 0x16, -0xe, -0x1e, -0x26, 0xc, -0x15, -0x36, 0x7, 0x6, -0x1a, 0x14, 0xa, -0xc, 0x1e, -0x16, -0x11, 0xd, 0x21, -0x26, 0x7, 0xf, 0xb, -0x1d, -0x10, -0x17, 0xe, -0x1e, -0x1f, -0x4, -0xe, -0x9, 0xc, 0x3, -0x9, 0x9, 0x14, 0x0, 0xc, -0xc, -0x1, 0x11, -0x6, -0xe, 0xe, 0x9, -0x3, -0x7, -0xc, 0x1, 0x7, 0x9, -0x12, -0x3, 0x2, 0x2, 0x27, 0x30, 0xf, 0x1c, -0x3, 0x17, 0x10, 0x34, 0x2d, -0x16, -0x1c, -0x1f, -0x20, -0x25, -0x22, -0x29, -0x48, -0x45, -0xa, -0x1c, 0x13, -0x3, 0x1f, 0x13, 0x15, 0x29, -0x8, 0x6, -0x11, -0x1d, 0x4, 0x4, -0x16, 0x4, -0x7, -0xc, -0x1, 0x9, -0x1,
0x7, -0x4, -0x8, -0x4, 0xd, 0xa, -0x9, 0x11, -0x3, 0x3, -0x8, -0x11, 0xb, -0xa, -0x10, -0xe, -0x1, -0xe, 0x14, 0x18, 0x7, 0x8, 0x8, -0x11, -0x1e, 0x2, -0x2, 0x14, 0xb, -0x7, 0x21, 0x11, -0x1b, -0x9, -0x4, -0x1, 0x2, 0xa, -0x3, 0x11, 0x9, 0x0, -0x9, -0x6, -0x1, 0x6, 0x0, -0x1, 0x0, 0x2c, -0x10, -0xa, -0xb, 0x7, 0xe, 0x9, -0x10, 0xd, 0x21, -0x13, -0x39, 0x39, 0x31, 0x17, -0x7f, 0x18, 0x11, 0x32, -0x52, 0x1d, 0x0, 0x11, -0x25, -0x2d, 0x5, 0xc, -0x1a, 0x1b, 0xd, 0x10, -0x8, -0x4, -0x29, 0xc, -0x17, -0x14, 0x13, 0x79, -0x15, 0x39, -0x25, 0x52, 0x2, 0x11, -0x3, -0x5, 0x19, -0x3a, -0x6c, 0x3c,
-0x3d, 0x6a, -0x25, 0x33, 0x47, -0x4, -0xc, -0x1c, -0x1, 0x1f, -0x1, 0x5, -0xf, 0x1c, 0xf, 0x24, 0x5, -0x8, -0x1c, -0x7, 0x7, 0x15, -0x2, 0xf, -0x1, 0x19, -0x1b, -0x4, 0x4, 0x5, 0xe, 0xb, 0x2f, -0x3, 0x5, -0x4, 0x5, -0xd, 0x63, 0x21, -0x5, 0x18, 0x5, -0x7, -0x7, 0x20, -0x7f, -0x11, 0x10, -0x12, 0x18, 0x0, -0xd, -0x16, 0x6, 0xc, -0x2, -0x7, -0x24, -0xa, 0x2a, 0x4, 0x8, 0x15, 0xa, 0x22, -0x5, 0x9, -0x8, -0xa, -0x11, -0x6, -0x34, -0x4, -0xb, -0x32, -0xc, -0x4, -0x3, -0x4, -0x7, 0x26, -0xf, 0x1c, -0x19, 0x1f, 0x7a, -0x1a, -0x34, 0x31, 0x48, -0xb, 0xc, 0x2c, 0x6, 0x6, 0x19, 0xc, 0xf, -0x55,
-0x2e, 0x42, 0x1c, -0x4d, -0x1f, -0x61, -0x36, -0x9, 0x13, -0xc, -0x1e, -0x2a, -0xe, 0x73, -0xa, -0x2, -0x4, 0x3, 0x8, 0xa, 0x1, 0x11, 0x15, 0x3, 0x4, 0x2, -0xc, -0xe, -0x15, -0x8, -0xd, -0x19, 0x2, 0x0, 0x0, -0x1, -0x5, -0x2b, -0x18, 0x6, -0x16, -0x12, -0xc, 0x36, 0x27, 0x6, 0x1c, 0x19, 0x0, -0x23, -0xd, -0x65, -0x2f, 0x7, -0x3d, -0xa, 0xe, 0x11, 0xf, 0x11, -0x54, 0x18, 0xd, 0x35, -0x49, 0x14, 0x2a, 0xe, -0x23, -0x4, 0xb, 0x9, 0x15, 0x1a, 0x5, 0x1d, 0x16, 0x5, -0x13, -0x1a, -0x11, -0x17, -0x25, -0x11, -0x1, -0xc, -0x4, -0x11, -0x39, 0x3c, -0x2d, -0x18, 0x31, -0x3d, 0x42, 0x24, -0xc, 0x5, 0xc, 0x10,
0x30, 0x26, 0x1a, 0x2b, 0x7, -0x2e, 0x7f, -0x40, 0x5, -0x3d, 0x47, 0xe, -0x30, 0xe, -0xd, -0xf, -0x6, -0x15, -0x38, -0x11, -0x11, -0x1d, -0x16, 0x2, 0x7, 0x5, 0x15, 0x17, 0xb, 0x16, 0x12, 0x1, 0x9, 0xb, -0x1, 0x2d, 0x32, 0xb, 0x21, 0x25, 0x8, -0x8, -0x17, -0xb, -0xa, -0x18, -0x12, -0x7, -0x10, -0x10, -0x1d, -0x14, -0x1, -0x1e, -0x5, 0x6, -0x9, 0x2, 0xc, -0x10, -0x17, 0x16, 0x23, 0xa, 0x10, 0x11, 0x27, 0x4, -0x2b, 0xb, -0x9, 0xc, 0x8, 0x2, -0xd, -0x7, 0x1, 0x3, -0x14, -0x3, -0x4, 0x2, 0x9, 0x16, 0x2, -0x2, 0x6, -0x5, -0xc, 0x8, -0x1, -0x41, 0x5, 0x3e, -0x11, 0x11, 0xf, 0x2d, -0xe, 0x28,
-0x4b, 0x19, 0x4, 0xd, -0x15, 0x2, 0x27, -0x3, -0x9, -0x5, -0x13, 0x24, 0x49, -0xb, 0xe, 0x5, -0x14, 0x3f, 0x2c, 0x4, -0x1, 0x1a, 0x9, 0x16, -0xe, -0x2c, -0x6, -0x4, 0xd, -0x9, -0x12, 0x11, 0x1e, 0x5, 0x29, 0xe, -0xb, 0x7, -0x1d, -0x2, 0x1, -0x17, 0x13, -0x6, -0x7, 0xc, -0xd, 0x1, 0x6, 0x1, 0x1d, -0xe, 0x1, -0x1, 0xd, 0x4, 0xb, 0x9, -0x15, -0x12, 0x0, 0xa, -0x2e, 0x9, -0xc, 0x2, 0x12, -0x7, 0x34, -0x4, 0x13, 0x26, -0x2d, -0x7, -0x5, 0x4a, 0x14, 0xe, 0x16, 0x2a, 0x1e, 0x7, -0x5, -0x5, 0x2e, -0x19, -0x11, -0xb, 0x6, -0x18, 0x2b, -0x6, -0x1d, -0x3c, 0x30, -0x16, -0x9, -0x11, -0xc, 0x6,
0x2, -0x19, 0x4, -0x4, -0x28, 0xa, 0x25, -0x8, 0x7, 0x45, -0x32, 0x1, -0x1, 0x12, 0xd, 0x4, -0x26, -0xa, 0x6, 0x10, -0xf, 0x5, -0x1f, -0x6, 0x12, 0x14, 0x8, -0x8, 0x0, 0x5, 0x1b, -0x1b, 0x3e, 0x10, -0x15, -0xc, -0x18, 0x5, 0x19, -0xb, 0xd, -0x7, -0x16, 0x44, -0x2c, 0xb, 0x7, 0x12, 0x16, -0x8, -0xe, -0x47, 0x32, 0x56, 0xf, -0xb, 0x13, 0x10, -0x2b, 0x1c, -0x15, 0x6, 0x7f, -0x20, -0x1f, -0x22, 0x34, 0x10, -0x13, -0xe, 0x3d, 0x17, 0x1b, -0x6, -0x19, 0xd, 0x15, 0x18, -0x3, 0x15, -0x2, -0x22, -0xb, -0x2, 0xc, 0x27, -0x5f, -0x7, 0x6, 0xa, 0x1b, 0x1b, 0x27, 0x8, 0x18, -0x15, -0x6, 0x2, 0x20, -0x5,
-0x10, -0x12, -0x15, 0x23, -0x19, -0xd, -0x2b, 0x7, 0x28, -0xc, 0x29, 0x4, -0x5, -0x1b, 0xd, 0x1, -0x6, 0x2b, 0x3, 0xd, 0x5, 0xb, 0x2, 0x3, -0x36, 0x5, 0x2d, -0x3, 0xb, -0x27, 0x9, 0x18, -0x2, -0x3, 0x1e, -0x13, -0xa, 0x4, 0x1a, -0x5, 0x2, -0x5, 0x9, -0x19, 0x10, 0x5, 0xa, 0x35, 0x20, 0xf, -0xc, 0x4d, -0x5, 0xd, 0x20, -0xe, 0x15, -0x3, 0xd, -0xb, 0x30, -0x21, -0x35, 0x1a, -0x4, 0xa, -0x4, 0x33, 0x6, -0x2, -0xa, 0x2b, 0x14, 0x3, 0x12, 0xe, -0x29, -0x1, -0x27, 0x2, -0x2, 0x1, -0x1, 0x0, 0x3, -0x14, -0x4, 0x2b, 0x5, -0x2, 0x1, 0xb, 0x8, -0x4, 0x4, 0xf, -0x10, -0x9, -0x2, 0x15,
0x17, -0x1d, 0xc, -0xf, -0x8, 0x1b, -0x15, 0x3e, 0x2, 0x1a, -0xc, 0x3, 0x3, -0x2, 0x6, 0x19, -0x2, -0xb, -0xc, -0x4, -0x5, -0x3, 0x1e, 0x3, -0xe, -0x9, 0x1e, -0x1, -0xc, -0x36, -0x1e, -0xa, 0x3, -0x4, -0x4, -0x1, 0x36, 0x2, 0x13, -0x12, -0x15, -0x8, -0xe, -0x2c, -0x16, 0x24, -0x5, 0x1, 0x1a, 0x26, -0xd, 0xa, -0xa, 0x3, 0x1b, -0x45, 0x70, 0x0, -0x22, 0x5, 0x0, -0x11, -0x2, 0x9, 0x1, 0x1, -0x2, 0x2, -0xa, -0x1, 0x1a, -0x6, 0x3, 0x0, 0xa, 0x27, 0x6, -0x5, 0x1e, -0x8, 0xc, 0x1d, 0x28, 0x1c, -0xf, 0x2, 0xa, 0x0, 0x32, 0x15, 0x30, 0x12, -0x17, -0x9, -0x3, -0x18, 0x10, 0x1, 0x1e, -0x7,
0x1b, 0x10, 0xa, -0x3, -0xe, 0xf, -0x3, -0x14, -0x2, -0x1c, -0xd, 0x7, 0x2, 0x2d, 0xa, 0x23, -0xc, 0x1, -0x5, 0x48, 0x7, 0x19, 0x9, 0x25, 0x1d, 0x19, 0x37, 0x19, -0x6, 0x20, -0x1, -0xf, -0x64, -0x5, 0xd, -0x5, 0x2e, -0x47, -0x14, 0x0, 0x8, 0x2, 0x4, -0x1, 0x62, -0xd, 0xb, -0xd, 0x0, 0x54, -0x2, -0x9, -0x4, 0x9, -0x4, -0x1b, -0x3, 0x1f, 0xd, -0xf, 0x6, 0x7, 0x1a, -0x14, 0x23, 0xc, -0x1f, 0x36, 0x34, 0x20, -0x3c, 0x0, 0x18, -0x7, 0x3, 0x2a, 0x1d, -0x23, 0x0, 0x9, -0x7f, 0x7c, 0x17, 0x35, 0xe, -0x1f, 0x54, -0x4c, -0x16, 0x2, -0x1f, 0x8, 0xa, -0x17, -0x7, 0x12, 0x0, -0x10, -0x2, 0x9,
-0x5, -0x9, 0x18, 0x10, -0x8, 0x4, 0x11, 0x2, -0x13, 0x6, 0x3, -0x15, -0x2, 0x10, -0x1b, -0xb, 0x39, -0x1e, -0x3, 0x3f, -0x2e, -0x26, 0xb, -0xe, -0x17, 0x3, 0x1a, -0x19, -0x7, 0x3c, -0x26, 0x0, 0x11, -0x9, 0x1c, 0x3, 0xa, 0x7, -0x20, -0xf, -0x8, -0x33, -0xf, -0x28, -0x28, -0x1f, 0x11, 0x2e, 0x13, 0x8, 0x14, -0x9, -0x1, 0xc, -0x1, 0x2, 0x19, -0x1, -0x4, 0x17, 0x2, 0x3, 0x14, -0x15, -0x24, 0x2f, 0x22, -0x5, -0x21, -0x10, -0x9, -0x20, 0xc, 0x3, -0x25, 0x20, 0x2, -0x19, 0x10, -0xb, 0x11, 0xa, -0xe, 0x26, 0x9, -0x9, -0x8, -0x1, -0x11, 0x23, 0x1d, -0x34, -0x13, 0x1c, -0xf, -0x15, -0x4, 0xd, -0x13, 0x1,
-0x21, 0x39, -0x3, 0x16, -0x12, 0x4, -0xa, 0x9, 0x6, -0x1, 0x1a, 0x11, -0x6, 0x8, -0x3, -0x21, -0x30, -0xf, 0x3c, 0x28, -0x25, -0x19, 0x2e, 0x0, -0x1c, 0x2c, 0x31, -0x17, 0xd, 0xe, -0x6, -0x1b, -0x1c, -0x9, -0x30, -0x12, -0x5, 0x29, 0x20, 0x6, -0x2, 0x8, 0x36, -0x10, -0xf, 0x28, -0x1e, -0x13, -0x2, 0x5, -0x2, 0x4c, -0x4c, -0x18, -0x6e, 0x78, 0x1c, 0x16, -0x42, -0x8, -0x7, 0x13, 0x6, 0xa, 0x21, 0x3, 0x3, 0x6, -0x9, -0x8, -0xa, -0x18, -0x11, -0x21, 0x3a, -0x10, -0x30, 0x12, 0x2c, -0x30, -0x19, -0x1b, -0x3b, 0x3e, -0x23, -0x18, 0x34, -0x1, -0x21, 0x7, -0x7, -0x25, -0x6, 0xe, -0x7, 0x3, -0x17, -0x31, 0x4f, -0xb,
-0x31, 0x3c, -0x4, -0xb, 0x2, -0x9, 0x5, 0x3, -0xc, 0x12, 0x22, -0x4, 0xa, -0x3, -0x2, 0x27, 0x8, -0xf, 0x10, 0x21, 0x1, -0x18, -0x8, -0x3, 0x23, -0x3, -0x18, 0x2c, -0x11, -0x1c, 0x14, -0x11, 0x18, 0x21, -0x9, 0x19, -0x18, -0x1a, -0xd, -0x10, 0x4, 0x3, -0xc, 0x9, -0x1f, -0x2a, -0xb, -0x2, -0x24, 0x0, 0x12, 0x2, -0x7, 0x11, 0x1b, 0x9, -0x4, 0x0, 0x6, -0xf, 0x0, 0x4, -0x3, 0x1, -0x4, 0xb, -0x12, 0x6, -0x7, -0x9, 0x1, 0x2a, 0x9, 0x3, 0x4, 0x1, 0x6, 0x12, 0x4, -0x3, -0x7, 0x14, 0x0, -0x8, -0x2, -0x17, -0x6, 0x0, 0x0, -0x9, -0xb, 0x10, -0xb, -0x3, 0x13, -0x23, -0x21, -0x1, -0x22, 0x67,
-0x18, 0x15, -0x5, -0x7, -0x36, 0x11, -0x21, 0xf, 0x8, 0x54, 0x3, 0xa, 0xb, 0x1a, 0x11, -0x26, -0x5, 0x14, -0x37, -0x5, -0x39, -0x1c, 0x8, 0xa, 0xb, -0x1, 0x1, -0x8, 0x4, 0xb, -0x6, 0x3, 0xb, 0x5, 0x5, 0x5, -0x6, 0x8, -0x9, 0x13, 0x2, 0x8, 0x0, 0xa, -0x2, 0x0, 0x3, -0x4, 0x6, 0x1, -0x4, -0x2, 0x11, -0x1d, 0x5, -0x1, -0x8, -0x1e, -0x3, 0x1e, -0x13, -0x4, 0x1a, 0x2b, -0x34, 0x1, -0x15, 0xd, 0x13, 0xa, -0x3, 0x3, 0x35, -0x14, 0x8, 0x1, -0x32, -0xd, -0xb, -0xb, 0x12, -0x4, -0xb, -0xf, 0x21, -0x3, -0xb, -0x9, -0x6, 0xa, 0x14, -0x18, 0x2, -0x9, -0x6, 0x1, -0xb, -0x7, -0x3, 0x6,
0x2, -0x2, 0x23, -0x5, -0x6, -0x1, 0x2, -0x1, 0x1c, 0x2, 0x7, 0xd, 0x3, 0x4, 0x1, 0x5, -0x4, -0x2, -0x9, 0x1f, 0xb, -0x8, 0x8, 0xc, -0x1, -0xa, 0x1, -0x1, -0x23, 0x2, 0x1, -0x6, 0x27, -0x4, 0x9, 0x12, -0x14, 0x9, 0x1, 0x2, 0x15, 0x10, 0x8, 0x11, 0x0, -0x15, -0xd, -0x14, 0xd, 0x12, 0x9, -0xb, 0xc, -0xe, 0x14, -0x23, 0xf, 0xd, -0x1f, -0x10, 0x25, 0x0, -0x9, 0x1c, -0x5, 0x5, -0x9, 0x1c, 0x6, 0x9, 0x11, 0x14, -0x9, 0x1, 0x4, -0x24, 0x17, 0x14, -0x5, -0x17, 0x2, -0x2b, 0x9, 0x29, 0x12, -0x2, -0x12, 0x13, -0x5, 0x29, -0x19, 0x2a, -0xb, -0xe, 0x34, 0x5, 0x20, -0x15, -0x1, -0x1,
-0x8, 0x7, 0x72, -0x2, 0x34, 0x8, 0x1a, -0x21, 0xf, 0x24, -0x1a, 0xd, 0x1f, -0xa, -0x9, 0x1d, -0xe, 0x19, 0x1f, -0x8, 0x7, 0xa, 0x1c, -0x6, -0xc, 0x23, 0x9, -0x29, 0x6, -0xc, -0x10, -0xf, 0x11, -0x3, -0x1c, 0x2, 0xf, 0xa, 0x0, -0xa, 0x0, 0x5, 0x29, 0xc, -0xb, -0x33, 0xc, -0x1, 0x1, -0xb, 0x12, 0x1, 0x3, -0x1, -0x2, -0x2, 0x5, -0x7, -0x5, 0x1d, 0x3, -0x5, 0x4, 0x7, -0x5, 0x3, 0x0, -0x2, -0x5, -0x12, 0x9, 0xb, 0x4, -0x7, -0x15, 0x0, 0x4, 0x0, -0x7, 0x12, -0x34, 0x1e, 0x37, 0xf, 0x1d, -0x19, -0x22, -0xc, 0x1f, 0x3, -0x42, -0x1, -0x4, 0xd, -0x25, 0xc, 0x11, -0x23, -0x16, -0x1c,
0x1d, -0x1d, -0x27, 0x1c, -0xb, -0x12, 0x7, -0xb, -0x11, -0xb, 0x13, 0x2d, -0x14, -0xa, -0x11, 0x17, -0x1, -0x16, 0x8, 0x10, 0x2, 0x1a, -0xb, 0x1f, -0x32, 0x9, -0x20, -0xe, 0x11, 0x6, 0x16, -0x23, -0x18, 0x12, -0x5, -0x9, 0xc, -0x2, -0x19, -0xd, -0x6, -0x15, 0x4, 0x10, 0x1e, 0x0, -0x14, -0x10, -0x30, -0x7, -0xb, -0x26, -0x5, -0xb, 0x5, -0x1, -0x2, -0xa, -0xd, -0x1, 0x43, -0x1d, 0x21, -0x6, -0xf, -0x10, -0x10, 0x1a, 0x1c, 0x30, -0xb, -0x4, -0xd, 0xf, -0x3, 0x14, -0x4, 0x1, -0x7, 0xc, 0x19, -0x6, 0xa, -0xe, 0x23, 0xa, -0xf, -0xe, 0x6, -0xc, 0x7, 0x11, -0x3, -0x8, 0x12, -0x8, -0x1, 0xd, 0x21, 0x6,
0x25, -0xc, -0xd, 0x37, 0xd, 0xd, 0x7, 0x1, 0x1, -0x4, 0x51, 0x13, -0x29, 0x64, 0x18, 0x14, -0x2f, 0x48, 0xa, -0x41, 0x29, 0x13, -0xb, -0x10, 0x6, -0x15, -0x8, -0x13, 0x4, -0x36, -0x14, 0x2, 0xc, 0x5b, -0x3f, -0x24, 0x4, 0x49, -0x48, 0x39, -0x23, 0x3, -0xf, -0x6, -0x4, -0x1, -0x34, -0x12, -0x10, -0xa, -0x2, 0x2f, -0x2b, 0x10, 0x3, 0x7f, -0x17, -0x23, 0x11, -0x13, -0x17, -0x45, 0x1e, 0xe, 0x22, 0x16, 0x0, -0xb, 0x27, 0x4, -0x27, -0x3, 0x11, 0x1, -0xd, 0x2, -0xa, -0x4, -0x1c, -0x3, -0x12, 0x9, -0x19, -0x8, 0xa, 0x7, 0x5, -0x27, 0x6, 0x35, -0xc, 0x8, 0x21, 0x7, 0x10, -0x8, -0xc, -0xc, -0x2e, 0x6,
0x27, -0x5, 0xb, 0x3, 0x15, -0x7, 0xd, 0x8, -0x1, -0x3, -0x1, -0x18, -0x9, 0x7, -0x3, -0x5, 0x3, 0x19, 0x0, -0x8, -0x5, -0x11, 0x0, 0x27, 0x7, -0x6, 0x2, 0x0, 0x0, 0x8, 0xd, -0xe, -0x6, -0x17, -0x1, 0x0, -0x20, -0xd, -0xb, 0x8, 0x1d, -0x9, 0x1, 0x15, 0x17, -0x7, 0xc, -0x7, -0xf, -0xe, 0xb, 0x7, 0x15, 0x6, -0x19, -0x6, -0x5, -0x2e, -0x12, -0x4, -0x29, -0x2, -0x9, 0xf, -0x8, -0x2b, 0xf, 0x1, 0xc, -0x1, -0x2, -0x13, -0x12, -0x1b, -0x1, -0xf, 0x1, -0x12, -0x1b, -0xb, 0x10, 0x1, 0x30, -0x2c, -0x1a, 0x24, 0x1, 0x5, 0x13, -0x1e, 0x42, 0x29, -0x4, 0x13, 0xd, -0xb, 0x34, 0x36, 0x9, 0x19,
0x10, -0x2, -0x5, 0xa, 0x1a, -0x28, 0x6, 0x9, -0xe, -0x13, -0xb, -0x20, -0x1d, 0xb, 0x11, -0x7, -0xb, -0x1c, 0x13, 0x13, 0x26, 0x6, -0xd, -0x4, -0x14, 0x1, 0x2, -0xc, 0x30, 0x10, 0x25, 0x6, -0x4, 0x1b, -0x1c, -0x13, 0x27, -0xe, 0x1, -0x10, -0x5, 0x8, 0x7, -0x27, -0x2, 0x6, 0xb, 0x14, 0xa, -0xf, 0xd, -0x2, -0x1, -0x23, 0x1, -0x13, 0x5, 0xf, -0x2, -0x5, 0xe, 0x0, -0xc, 0x19, 0x11, -0x6, -0x2b, -0x21, 0x8, -0x1, -0xd, -0x4, 0x2a, 0x6, 0x3, -0x13, -0x1f, 0x5, -0x1d, 0xa, 0x5a, 0x0, 0x11, 0x1a, -0x1e, 0x13, -0xe, -0x19, -0x18, 0x54, 0x20, -0x10, -0x1, 0x9, 0xc, -0xe, -0x13, 0x10, 0x1b, 0x1,
0x27, 0x2c, -0x16, -0x1e, -0xa, 0x4, 0x2f, -0xf, 0x4, -0xb, 0x10, -0x15, -0x36, -0xd, 0x5, -0x1f, 0x1e, -0x13, -0x13, 0x3, -0x1c, 0x2, -0x16, 0x1e, -0x9, 0x17, -0x35, 0x20, -0x2e, 0x6, -0x7, 0x11, -0xd, -0x2c, 0xc, -0xc, -0x28, -0xf, -0x1b, 0x9, 0x25, 0x0, 0xc, -0x2, 0x2f, -0x1d, -0x11, -0x23, 0x15, -0x10, -0x13, 0x10, -0x7, -0xd, 0x9, -0xf, -0xd, 0x13, -0x12, -0x1d, 0x10, -0x1c, -0x6, -0x3d, -0x6, 0x4, 0x9, 0x3, -0x5, -0x14, -0xb, -0xd, 0xd, 0x6, 0x21, 0x1, 0x17, 0xc, -0x2, 0x13, 0x1, -0xb, -0x3, -0x13, 0x3, 0x10, -0x10, 0xa, 0x10, 0x3, -0x5, -0x15, -0xb, 0xf, 0xd, -0xe, -0xb, 0x0, -0x13, -0xe,
0x9, 0x1, -0x6, 0x2f, 0xa, -0xc, 0x21, -0x1, -0x9, -0x28, 0x9, -0x8, 0x14, 0x1a, -0x11, 0x16, 0x1e, -0x27, -0x2d, 0x1, -0x19, -0x11, 0x16, -0x15, -0x10, 0x44, 0x5, -0x1a, -0x2d, 0x19, -0x28, 0x2, 0x2a, 0x19, -0x2, -0x8, 0x34, -0x4, 0x10, 0x14, 0xa, -0xa, -0x3, -0x11, 0x6, 0x7, 0x39, -0x10, 0x35, -0xd, 0x4a, -0xa, 0x6, -0x1b, -0x10, -0x13, 0x27, -0x4, 0x0, 0x5, 0x13, 0x32, 0xd, -0x4, -0x16, 0xb, 0xf, -0x1, 0x11, -0xb, -0x1a, -0xa, 0x11, -0x2, 0x42, 0xc, -0x13, -0xf, -0x17, 0x5, -0xf, -0x4, -0x9, 0x3, 0xc, 0x7, -0x27, -0x16, -0x13, 0x21, 0x1, -0x14, 0x62, 0x77, 0x23, -0xe, -0x6, -0xe, 0x39, 0x31,
0x6, 0x4, 0x36, -0x21, -0x38, -0x19, 0x7, -0xa, -0x26, 0x25, 0x6a, -0x4f, 0xe, -0x36, -0x2, 0x2, 0x6, 0x12, -0x45, 0x2a, -0x1a, 0x12, 0x1b, 0x6, -0xb, 0x19, 0x7, 0x7, 0x6, 0x5d, -0x12, -0x11, 0x6, 0x24, -0x24, 0x2d, -0x1a, -0x2, -0xf, -0x1c, -0xb, -0x30, -0xb, -0x47, -0x27, -0xe, 0x3, -0x15, -0x16, -0x6d, -0x9, -0x18, -0x16, 0x5, -0x19, -0x8, -0x26, 0x1f, 0x9, -0x14, 0x25, -0x2, 0x2d, 0x8, -0xc, -0x15, -0x2, -0x4, -0x13, -0x12, -0x5, -0x5, -0x2, -0x3, -0xe, 0x10, 0xd, -0x2, -0xd, 0x3d, 0x1, -0x8, -0x1f, 0x2a, 0x57, 0x40, 0x54, 0x79, 0x3f, 0x3a, 0x49, 0x1b, -0x2, -0x18, -0x8, -0x17, -0x28, -0x11, -0x18, -0x15,
-0x7, 0x47, -0x4d, -0x45, 0x79, -0x2b, -0x4d, 0x35, -0x11, -0x3c, -0x1e, -0x1b, 0xb, -0x1c, 0xa, 0x23, -0x3, 0x21, 0x2e, 0x42, 0x59, 0x30, -0x10, -0xf, 0x0, -0x47, -0x67, -0x34, -0x17, -0x20, -0xf, -0x2a, -0x46, -0x1d, -0x15, -0x21, -0x7, 0x1c, 0x2c, 0x10, 0x23, 0x28, 0xf, 0x7, 0x5, 0x6, -0xb, -0x15, -0xf, -0x19, -0x29, -0x13, -0x1, -0x1c, -0x9, 0x0, -0x22, -0x20, -0x1d, -0x30, -0x12, -0xf, -0x16, -0x1, -0x7c, -0x7f, -0x2e, 0xa, 0x15, 0x25, 0x53, 0x5e, 0x2d, 0xf, 0x21, 0x13, 0x1d, 0x25, 0x17, 0x19, 0x18, 0x7, -0x2a, 0x24, 0x29, -0x50, 0x20, 0x29, -0x19, -0x4, 0x7, 0x17, 0xc, -0x6, 0x28, 0x1f, -0x4, 0x15, 0x19, 0xb,
-0x1f, -0x34, -0x16, -0x2d, -0x30, -0x13, -0x12, -0x7, 0x5, -0x7, -0x1a, -0x1d, -0x15, -0x2b, -0xb, -0x9, -0x8, -0x3, -0x8, -0x16, -0x19, -0xd, -0x29, -0x2a, -0xf, -0x1b, -0x17, -0x20, -0x17, -0x3, -0x1b, -0x33, -0x2a, -0x3, -0x17, -0x17, -0x18, -0x2e, -0x18, -0x3c, -0x60, -0x27, -0x2c, -0x36, -0xf, -0x1d, -0x23, -0x9, -0x22, -0x3a, -0x1b, -0x1f, -0x1d, -0xf, -0x14, -0x11, 0x3, -0xd, -0x25, -0x18, -0x5, -0xc, -0x15, -0x12, -0x2, 0x17, 0x0, 0x21, 0x26, 0x16, 0x24, 0xe, 0x3, -0x13, -0x2b, -0x26, -0x2f, -0x35, -0x11, -0x20, -0x1f, -0x18, 0x5, 0xd, -0x28, 0x12, 0x20, -0x8, 0x13, 0x14, 0x8, 0xc, 0x6, 0x9, 0x18, 0x18, -0x1, 0x12, 0x10, 0x13,
0xa, -0xa, 0x1d, 0x2a, 0x12, 0x18, 0x2c, 0x23, 0x22, 0x32, 0xf, 0x31, 0x25, 0x2, 0x7, -0x9, -0x12, -0xc, -0x1f, -0x17, -0x25, -0x25, -0x8, -0x15, -0xe, 0x9, 0xf, 0x14, 0x5, 0x18, 0x1a, 0x5, 0xb, 0xc, 0x3, -0x9, -0x18, -0x1f, -0x1e, -0x3a, -0x21, -0x3, -0x18, -0x14, 0x4, 0xc, 0x9, 0x9, 0x15, 0xb, 0x8, 0x7, 0x1, 0x10, 0x15, 0x5, 0x17, 0x1a, 0x0, 0xc, 0x6, -0x3, -0x2c, -0x4a, -0x1c, -0x18, -0x2f, -0x17, 0xb, -0x3, -0x9, 0x2, 0x3, -0x4, -0x5, 0x19, 0x4, 0x1c, 0x1, -0xf, 0x8, -0x8, 0x1, 0x5, 0x3, -0xb, -0x12, -0x9, -0xc, 0x0, 0x0, 0x0, -0x2, -0x3, 0x0, -0x12, 0x7, -0x4, 0x3, -0x6,
-0x10, 0x5, 0x6, 0x13, 0x9, -0xb, -0x7, -0x1, -0x11, -0x14, 0x2e, 0xa, 0x18, 0x7, -0x10, 0x6, 0x27, -0x12, -0x11, -0x8, 0x4, -0x1, -0x5, -0x26, 0x2d, -0x5, 0x1e, -0x3, 0x2, -0x26, -0x25, -0x1c, 0x11, 0xa, 0x27, 0x1a, 0x14, -0xb, 0xe, -0x11, -0x8, 0x20, 0x7, 0x2, 0x1d, -0x1b, 0x4, -0x6, 0x27, -0x10, -0xd, -0xe, -0x14, 0x7, -0x13, -0x1f, -0xb, 0xd, -0xe, 0xa, 0x22, -0x2a, -0x4, -0x2a, 0x9, -0x8, 0x7, -0x1b, -0xb, -0x24, 0x17, 0x35, 0x26, 0x7, 0x21, 0x10, 0x24, 0x2, -0x25, -0x25, 0x2, 0xd, 0xa, 0x7, 0x14, -0x8, -0x9, -0xa, 0xc, -0x1c, -0x18, -0x21, 0x3c, -0xf, -0xb, 0x12, -0x3b, 0x4, -0x1b, 0x7,
0x7, -0x5, -0x25, 0xb, -0x21, -0x9, 0x3, -0x14, -0x4, 0x3, -0x21, -0x1f, 0x1, 0x16, 0x24, -0x2, 0x12, 0x8, 0x15, -0x15, 0x1d, 0xc, -0x6, 0xf, 0x8, 0x1f, -0x3, -0x3, -0x11, 0x1, 0x8, -0x4, -0x1, 0x10, -0x5, -0x8, -0x13, -0xd, 0x7, 0xd, 0x8, -0x2, -0xc, -0x2, -0x4, 0x7, 0x6, 0x2, 0x1a, 0x6, -0x6, -0xa, 0xd, -0x6, -0xc, 0x7, 0x8, 0x8, -0x1e, -0x7, -0x1, -0x9, 0xe, 0x6, 0x3, -0x2, 0x4, -0xc, -0x1d, 0x6, 0x0, 0x14, 0xa, 0x8, -0xf, 0x6, -0x21, 0x8, -0x18, 0x3, -0x9, -0x13, 0xb, 0x4, 0x2a, 0x3, -0x7, 0x3, -0x20, 0x15, -0x27, 0x7, -0x8, 0xb, -0x8, -0x27, -0x3b, 0x4, -0x2, 0xd,
0xd, 0x52, -0x5, 0x1f, -0xb, -0xd, -0x2, -0x1d, 0xf, 0x14, -0x27, 0x3, -0x5, -0x8, 0x11, 0x1d, -0xc, 0x1, -0xa, -0x3, 0xa, 0x1d, 0x7, 0x7, -0x14, 0x12, 0x1e, 0xe, -0x11, 0xd, 0x14, -0x6, -0xa, -0x9, -0x1c, 0x2b, 0x1, -0x1f, 0x5, 0x8, -0x10, 0x3, -0x1, -0x9, 0x29, 0x29, -0x12, 0x1f, -0x19, 0x20, 0xe, 0x6, 0x2, 0x7, 0x0, -0x15, 0x2a, -0x33, -0xe, -0x5, -0x7, -0x6, 0x2, 0x7, 0x2, 0x7, -0x6, -0x19, -0x2, 0x17, 0x9, -0x2, -0xe, -0x3, 0x3, -0x2, 0x8, -0xc, 0xf, -0xe, 0x5, -0x8, -0x6, 0x2, -0xe, 0x1, 0x7, -0x1, -0xb, 0x20, -0x2, 0x62, -0x17, 0x9, -0xd, 0x7, 0x4, -0x1, -0x4, -0xc,
0x12, -0x6, 0x18, 0x13, 0xe, 0xa, -0x20, 0xe, 0xf, 0x11, -0x7, 0x4, -0x2, -0x4, -0x15, -0x2, -0x1a, -0x28, 0x0, -0x8, 0xf, 0x17, -0x3, 0x1a, 0x12, -0xa, 0x12, -0x1, -0xc, 0x18, -0xc, -0x32, 0x18, -0x1c, 0xa, -0x6, -0xd, -0x2, -0x11, -0x14, -0x13, 0x3, -0x15, 0x16, -0x9, 0x10, 0xe, -0x12, -0x12, -0x35, 0x1a, 0xb, 0xb, -0x23, -0x15, 0x18, 0x1d, 0x20, -0x4, -0x17, 0x4, -0x6, 0x2, 0x9, -0xa, 0x0, -0x6, 0x15, 0xf, -0x1e, -0x17, 0x0, -0x22, 0x24, -0x1f, 0x8, 0xe, -0x16, 0x1e, -0x11, 0x1b, -0x1f, 0x7, 0x2, -0x4, -0x12, 0x7, 0x19, -0x13, 0x0, 0xe, 0xe, -0x6, 0x2, -0x9, 0x20, 0x6, 0x2, -0xb, -0x1,
0x4, -0xf, -0x1a, -0x14, 0xd, -0xd, -0xa, -0x3, 0x1b, -0x6, -0x5, -0x2, -0x7, 0x7, -0x19, -0x5, -0x2, 0x9, -0x8, -0x15, -0x1, 0xa, -0xb, -0x12, 0xc, 0x16, -0x15, 0x0, 0x12, -0x23, 0xf, 0x12, 0x6, 0x2, -0x13, -0x5, -0xf, 0x2, -0x6, 0x8, -0x17, -0x3, -0x5, 0x12, -0x1e, 0xe, -0xc, -0xf, 0x26, 0x1a, -0x10, -0xa, -0x15, 0x2d, -0x1e, 0x1c, 0x0, -0x1, 0x20, 0x5, -0x6, -0x25, 0x0, -0x32, 0x9, -0xc, -0x21, 0x4, 0x4, 0x0, -0x18, 0x16, -0x2, -0x28, 0x16, 0x1, -0x1f, 0x7, -0x12, 0x1c, 0x16, 0x4c, -0x5, 0xa, 0x27, 0x8, 0x3, 0x17, 0x1d, 0x6, 0xc, -0x18, 0xe, -0x13, -0x17, 0x2a, 0x27, -0xe, -0x1, 0x14,
0xb, -0x2, -0x1e, -0x15, -0x8, 0x19, 0xd, -0x3a, 0xf, 0x17, 0x2f, -0x11, -0x2, -0x14, -0x15, 0x30, -0xb, 0x11, 0x4, -0x12, 0x6, -0x16, -0x17, 0x6, 0x0, 0x7, 0x0, 0x10, 0x4, -0x9, -0x18, 0x1f, 0x68, 0x5, -0x10, -0x14, -0x2, 0xe, 0x19, 0x1c, 0x1d, 0x4, 0x2b, 0x1b, 0xd, 0x3, -0xb, 0x5, 0x1, -0x4, -0x9, 0x17, 0x18, 0xc, -0x8, -0x17, 0x4, -0x12, 0xb, 0x36, -0xa, -0xd, 0x12, -0x1, 0x5, -0x11, 0x3, -0x2, 0x6, 0x34, 0x1d, -0x2, -0x13, 0x1e, 0x13, -0x5, 0x0, 0x6, -0x15, 0x6, 0x6, -0x12, -0x18, 0x3, -0x3, -0x20, 0x26, 0xb, 0x20, 0xd, -0x2e, -0x12, 0x3e, 0xe, -0x7, -0x4, 0x1a, 0x2, 0xb, -0x1a,
0x6, -0x16, 0x6, 0x1d, 0x21, 0x4, -0x6, 0x2d, 0x4, 0x6, 0x22, -0x6, 0x9, 0x2, -0x9, 0x14, 0x5, 0x1d, 0x13, 0x4, 0x8, -0x1a, -0xa, 0x6, -0x8, -0xa, -0xc, 0x6, -0xd, -0x25, 0x7, -0x8, -0x3, 0xa, -0x1b, -0x26, 0x8, 0xf, 0x2a, -0xf, 0x9, -0x6, -0x6, -0x19, 0x13, -0x1, 0x0, 0x18, 0xa, 0x0, 0x5, 0x19, 0x12, 0xc, 0x12, -0xc, -0x17, 0x19, 0x7, 0x1d, -0x1d, 0x1c, 0x7, 0x16, 0x4, 0x8, -0xc, -0xa, 0x27, 0x22, -0x21, -0x30, 0x40, -0x42, 0x27, 0x1e, 0x1, 0x2, 0xc, 0x0, -0x7, 0x2, -0x1c, 0x7, -0x7, -0x4, 0x3, 0x8, -0x1f, 0x0, -0x12, 0xf, -0xd, -0x2, -0x4, 0x2, 0x4, 0x13, 0x7, 0x13,
-0x14, -0xb, 0x9, -0xb, 0x12, -0x15, -0x3, 0x0, -0xd, -0x29, -0x13, 0x5, 0x7, -0xf, 0x0, -0x13, 0x0, 0x20, -0x20, -0x22, -0x3, 0x25, 0x12, -0x1, 0x11, -0x2f, 0x4, -0x18, -0xa, -0x2, 0x1d, -0x16, -0x20, -0x19, -0x2c, 0x22, -0xa, -0x2, 0x5, 0x1a, 0x15, -0x11, -0x1c, -0x2a, 0x8, 0x1b, -0x16, -0x16, 0xf, -0xd, -0xe, 0x13, -0x10, 0x7, -0x1b, 0x5, 0x16, -0x56, 0x14, 0x15, -0x28, 0x49, -0x1c, 0x14, -0x2e, 0x21, -0x18, -0x1, -0x11, -0x18, 0x1a, 0xe, -0x7, -0xc, 0x20, 0xd, 0x16, -0x11, 0x1a, -0xf, 0x15, -0xb, 0x18, -0x1, -0x2, 0x2, 0x3, 0x13, -0xf, -0x1c, 0xc, -0x10, -0x1b, -0x23, -0x11, -0x10, 0x17, -0x6, 0x6, -0x26,
0x33, 0x7, -0xa, 0xe, -0x29, -0x19, -0x9, -0x12, -0x2b, 0x4b, 0x1b, 0x11, 0x3d, 0x1b, -0x22, -0x11, 0x9, 0x1c, -0x33, 0xb, -0x6, 0x9, 0x19, 0x4, 0x17, -0x32, -0x2c, -0x15, 0xa, 0x12, -0x11, 0x16, -0x48, -0x18, 0x11, 0x3b, 0x12, 0x6, -0x16, -0x1b, -0x14, 0xb, 0x12, 0x13, 0xa, -0x14, 0x9, -0x6, -0x4, 0x11, -0x44, 0x6, 0xd, 0x14, 0x7, 0x3, -0xe, 0xc, -0x15, -0x2, -0x7, -0xc, -0x7, -0x6, 0x7, -0x10, -0x2, 0x23, -0x7, -0x4, 0x4, 0x36, -0xe, -0x38, 0x4, -0x1b, 0x3a, -0x2e, 0xb, -0x1b, -0x2c, 0x5, -0x42, 0x11, -0xe, -0xc, -0x11, -0x22, -0x30, -0x6, -0x22, -0x4, -0x1b, 0x3, 0x2b, 0xc, 0x24, 0xb, 0xb, 0x8,
-0x17, -0xc, -0x4, 0xd, -0x1f, 0x6, 0x0, 0x1d, 0x12, -0xd, -0x8, 0x1, 0x2, -0x10, -0x17, -0x23, -0x3, -0x2, -0x2, 0xe, 0x3, 0x5, -0x1d, 0x37, 0xd, 0x9, -0xc, 0xd, -0x12, 0x24, 0x24, -0x2f, 0x2f, 0x1a, -0x8, 0x8, 0x1, -0x9, -0xa, 0x15, -0x11, -0x2e, -0x7, 0x1b, 0x4e, -0x21, -0x1c, -0x5, -0x3a, -0x17, 0x8, -0x16, 0x0, -0x2, 0x28, 0x0, -0x5, 0x2, 0xd, -0x1e, 0x5f, 0x24, -0x1d, 0x16, -0x2, -0xb, -0x5, -0x22, -0x1c, -0x6, 0x24, -0x16, 0xc, -0x17, -0x1d, -0x2d, 0x9, -0x25, -0x14, -0x25, -0x7, 0x20, -0x1, -0x36, 0x2f, -0x1, -0x25, -0xf, -0x36, -0x35, 0x1e, 0x3e, 0xd, 0x23, -0x18, 0x8, -0xd, 0x4, 0x9, 0x2d,
0x26, 0x1, 0xc, -0x2c, 0x15, 0x7, 0x17, 0x3e, 0x6, -0x13, -0xa, -0x10, -0x12, 0x1e, -0x16, 0x1, 0x0, 0xe, -0xb, 0x22, 0x38, 0xb, 0x46, 0x4c, 0x11, -0x2e, 0x1f, 0x14, -0x3, -0x11, -0x2, -0x34, -0x18, 0x22, -0x2, 0xc, -0x23, -0x7, 0x10, -0x28, -0x1d, 0x5, 0x11, -0x12, -0x7, 0x28, -0x2, 0xd, 0xc, -0xf, -0x9, -0x1, -0x25, -0x1e, 0x29, -0xb, -0x1, -0x17, -0x1c, 0xc, 0x20, 0x1e, 0x17, 0x11, 0x9, -0x5, -0x21, 0xe, -0x10, 0x0, 0x23, 0x2b, 0x11, 0x2b, -0x19, 0x47, 0x1, 0x3, -0x16, -0x6, -0x12, 0x1d, 0x25, -0x6, -0x13, 0x16, 0x32, -0x1f, 0x54, -0xb, -0x13, -0x6, 0xe, 0x9, 0x1, 0x0, 0x9, 0x9, -0xb, 0xe,
-0xa, 0x2, 0xd, 0x3, -0x1a, -0x1, 0x8, 0x15, 0x6, 0xb, 0x5, -0xc, 0x1, -0x1, 0xe, 0x1, -0x10, -0x1f, 0x7, -0x10, 0x2, -0x7, -0x19, 0x2e, -0x5, -0x4, -0x13, -0x4, 0x10, 0x1f, 0x5, 0x5, 0x2, -0x9, -0x7, -0xd, 0x0, 0x7, -0xe, -0x14, -0xa, -0x10, -0x1, 0x5, 0xb, -0x8, -0x5, -0x6, 0x8, -0x10, -0x1, -0x13, 0xc, 0xa, -0x1, -0xd, 0x17, 0x9, -0xb, -0x17, -0x18, -0x21, 0xd, 0x16, -0x13, 0x3, -0xc, 0x6, 0x4, -0x5, 0x0, 0x20, -0x1, 0xf, -0x13, -0xd, 0x8, 0x2, 0xd, 0xa, -0xe, -0x1, -0x18, 0xa, -0x1, -0x12, 0x7, 0x2, -0x22, 0x0, 0xe, -0x6, 0x6, -0x16, -0xf, -0xa, -0x5, -0x22, -0x2, -0x10,
-0x7, 0x2, 0x2, -0xf, 0x24, -0x13, -0x1, -0x19, -0x6, 0x2, 0x6, 0x5, 0xe, 0x1, -0x1, -0x10, -0x7, 0x8, -0x2a, -0xe, 0x3, 0xf, -0x2, 0x6, -0xa, 0x2, 0x1, -0x2f, 0x2, -0x5, 0x11, -0xc, -0x1e, 0x8, 0x14, -0x8, -0x7, 0x15, 0x23, -0x6, 0x18, -0xa, 0x2, 0x15, -0x32, -0x8, 0xd, 0x1f, -0x8, -0x2, -0x2, -0x1e, 0x2e, 0x1, -0x1b, 0x8, -0xa, 0x28, -0x4, -0x5, 0x38, 0x2, -0x10, 0xd, -0x5, 0x1c, 0xc, 0xc, -0x5e, 0x12, 0x4, -0x2, 0x16, 0xa, 0x6, -0x9, 0x4, 0x17, -0x27, -0x16, -0x16, -0x2c, 0x18, -0xd, 0x1, 0x26, 0x4, -0x10, 0x1, 0xc, 0x7, 0x7, 0xf, -0x2, 0x9, -0x9, 0x0, -0x4, 0x0, 0x2,
-0x2, -0xa, 0x5, 0x5, -0x27, -0x11, 0xb, 0xa, 0xf, -0x9, -0xd, 0x8, 0x0, 0x21, 0xc, 0xd, -0x1a, 0xb, 0x20, -0xf, 0x9, -0x10, -0x34, -0x3, -0xc, -0x28, 0xd, 0x4b, 0x6, -0x6, -0x3, -0x9, 0x2, -0x9, -0x2, 0x9, -0x4, 0x14, -0x19, 0x10, -0x17, 0x15, -0x9, 0x10, -0x1d, 0x5, 0x1, 0xe, 0x4, 0x8, -0xd, -0xc, 0x3c, 0x18, -0x1, -0x13, 0xc, -0xa, -0x5, -0x4, 0xa, 0x6, 0x9, 0x23, -0x13, -0x3, 0x1e, -0xa, 0xd, -0x4, 0x18, -0xc, -0x2d, -0x10, -0x1e, -0x14, 0x17, -0xd, -0xe, -0x26, -0xe, 0xa, 0x16, -0x21, -0xd, -0xf, -0x1d, -0x1b, -0x2b, 0x34, 0x43, 0x2b, 0xc, -0x12, 0xf, 0x2a, -0x15, 0x17, 0x3a, -0x57,
-0x43, -0xb, -0x6, 0x5f, -0x2c, -0x16, 0x36, -0x12, -0x2b, 0x5f, 0x4b, 0x1c, 0x45, -0x3f, 0x16, -0x11, 0x20, -0xb, -0xc, -0x30, -0x13, 0x23, 0x7f, 0x4e, -0x14, -0x18, -0x11, 0x2d, -0x3d, -0x36, 0x8, 0xf, 0x19, 0x27, 0x2, -0x1a, -0x3e, -0x2d, -0x1d, 0x8, -0x20, 0x1, -0x9, -0x16, 0x15, -0x10, 0x4, -0xf, -0x5, 0x3, 0xd, -0x1, 0x13, 0x0, 0x0, 0x4, -0x13, 0x5, -0x3, 0x1b, -0x1, -0xf, -0x7, -0x3, -0x8, -0x5, 0x10, -0x21, 0x6, -0xc, 0x2d, -0xd, 0xa, -0x16, -0x27, 0x36, -0xd, -0xa, 0x11, -0x18, -0x51, -0x12, -0x24, -0x28, 0x8, -0x25, 0x25, 0xe, 0x50, -0x34, 0x18, -0x38, -0x35, 0xf, 0x8, 0x10, -0xc, 0xb, 0x1, -0x3d,
0x3, -0x3d, -0x18, -0x2f, 0x1a, 0x2e, 0x25, 0xf, 0x0, -0x21, -0x13, 0x21, -0x18, 0x49, -0x19, -0x1a, -0xd, 0xa, 0x24, 0x9, 0xd, -0x1b, -0xf, 0xa, -0xa, 0x13, 0x8, 0x9, 0x2, 0x1a, -0x5, -0x1, -0x5, -0xf, 0x43, 0x1e, 0x2, -0x7, 0x3, 0x60, -0x7, 0x16, 0x6, -0x3d, 0x34, 0x3e, -0x14, 0x7, 0x37, -0xd, -0x19, -0xa, 0x1, 0x10, -0x3f, -0x5, -0x9, -0xa, -0x10, 0x12, -0x28, 0x14, 0x9, 0x1, -0x14, -0x1c, -0x29, 0x1, -0xd, 0x5, -0x9, 0x3b, -0xb, -0x5, 0xb, 0x3, 0x0, 0xf, -0xd, 0x5, 0x32, -0x1e, -0x10, 0x5, -0x1c, 0x1d, -0x2c, -0xa, -0x13, -0x27, -0x1, 0x8, 0x2, 0x23, -0x15, -0x5, -0x27, -0x16, -0xe, 0x6,
0x2f, 0x7, 0x1, 0x1, -0x1, 0x3, 0x1b, 0x13, 0x18, -0x11, 0xa, -0xa, -0x5, 0xa, 0xa, 0x1e, 0x1a, -0x19, -0x10, 0x1e, 0x1, 0x5, 0x2, 0x0, -0x5, 0xa, 0xa, -0x1, -0x16, 0x23, -0x10, 0xf, -0x13, 0x2, -0x2, 0x22, -0x1a, -0x7, 0x15, 0x14, 0x34, 0x14, 0x0, 0x12, 0x7, -0x7, -0x7, -0x17, 0x5, 0xc, -0x30, -0x6, -0x2, 0x10, -0x1f, -0x28, -0xc, 0x8, 0x10, 0x1a, -0xd, -0x32, -0xc, -0x12, 0xf, -0xd, -0xf, -0x3, -0x19, 0x2a, 0x15, -0x19, -0x14, 0x2c, -0x34, 0x0, 0xb, -0x5, 0x8, 0xe, 0x7, -0x2f, -0x18, -0x1c, -0x1c, 0x8, 0x2e, 0x2e, 0xb, 0xa, -0xe, -0x14, -0xa, 0x0, 0x2, -0x11, -0x29, -0x14, -0x19, 0x13,
-0x2c, 0x21, -0x3, -0x2, -0x23, -0x14, -0x1a, 0x4, -0x1d, -0x2, -0xf, 0x20, 0xb, -0x1, 0x19, 0x13, 0x2c, 0x1c, -0x8, -0x14, 0x6, -0x20, -0x5, -0x1, -0xf, 0x27, -0x27, -0x1, -0x7, -0x12, 0x18, 0xd, 0x11, -0x2, -0x4, -0x1, -0x8, -0x9, -0x2f, 0x11, -0x1f, 0x11, -0x8, 0x2, -0x2a, 0x9, -0x12, -0x1c, -0xa, -0x20, 0x5, 0x4, 0x12, 0x12, 0x3, 0x4, -0x31, 0xc, -0x2b, 0x0, 0x1, -0x7, -0xa, 0xc, -0x9, -0x40, 0x2f, 0x16, -0xa, -0x2d, -0x24, 0x10, 0x50, -0x12, -0xa, 0x2f, -0xc, -0xd, -0x13, -0x56, -0x3f, 0x22, -0x33, -0x16, 0x10, 0x27, -0xd, -0x2e, -0x2, 0xc, -0x35, -0x23, 0x2b, -0x4e, 0x56, -0x9, 0x9, 0x4, -0x5, 0xd,
-0x19, -0x3, -0xe, -0x22, -0x10, -0x8, 0x1e, -0x1c, -0x2d, 0xf, -0x24, -0x2b, -0x7, 0x8, -0x28, 0x17, -0x16, -0x11, 0xb, 0x5, 0xb, -0x8, 0x40, -0x6, 0x4, -0x13, 0xb, 0x6, -0x28, -0x25, -0x17, -0x1, 0x22, 0x21, 0x9, 0x12, -0x3, -0x11, 0x6, -0x18, -0x7, -0x1, 0x0, -0xb, -0x4, -0x20, -0x8, -0x22, -0x10, 0x15, -0x1c, 0x1, 0x8, 0x10, 0x17, -0x8, 0xd, 0xe, 0xe, -0x3, -0xe, -0x5, 0xa, -0x8, 0x0, 0x10, -0x12, -0x1, -0x1, -0x11, 0xa, -0x17, -0x5, -0x3, -0xf, -0x14, -0x10, -0x8, -0x1, 0xe, -0x5, -0x9, -0x19, -0x3, 0xd, -0x7, 0xc, -0x7, 0xa, 0xa, -0x9, -0x9, -0x1, -0xf, -0xf, -0x22, -0x13, -0x33, 0x1b, -0x5,
-0xc, 0x19, -0x15, -0x25, 0x19, 0x1, -0x5, 0x15, 0x26, -0x6, -0x1e, -0xa, 0xe, -0x20, 0x4, 0x29, -0x3, 0x23, -0xd, 0xa, 0x4, 0xf, 0x16, 0xc, -0x7, -0x1, -0x6, -0x1e, -0x22, 0x14, 0x5, -0x1, -0x4, 0x1b, 0xc, 0x10, 0x7, -0x37, 0xd, -0x25, -0x11, -0x2, -0xf, 0xb, -0xd, 0x4, 0x29, 0x16, 0x9, -0xd, 0x2, -0xf, 0x0, -0xb, 0x8, -0x4, -0xf, 0x18, -0x18, 0xc, 0x0, 0x1, -0x1e, -0xa, 0xf, 0x14, -0x7, 0x17, 0x24, -0x2, 0x1a, -0x8, -0x11, 0xf, 0x1, 0x9, -0x34, 0x8, 0x13, 0x1b, 0x27, -0x35, 0x11, 0x10, 0x9, 0x0, -0x9, -0x7, 0x23, 0x1d, -0x8, 0xa, 0x1, -0x25, 0x2, -0x5, -0x12, 0x19, 0x3, 0x24,
-0x13, -0x8, -0x1e, 0x1a, 0x11, -0x10, -0xa, 0x5, -0x13, -0x2, 0x18, -0x4, -0x3d, -0x1a, 0x19, 0xa, 0x1f, 0x38, -0x7, -0x4e, 0x5d, -0x33, -0x19, 0x7f, -0x41, -0xc, 0x7, 0x1, -0x24, -0x3, -0xa, 0x20, 0x2b, 0x4, 0x2b, 0x24, -0x26, 0x7, -0x32, -0x7, 0x23, -0x8, -0x23, 0x2, 0x8, -0x34, -0x1e, 0x6, 0x1e, -0x2, 0x1d, 0x1e, -0x18, 0x13, 0x23, -0x69, -0x73, -0x4b, 0x4, 0x61, 0x30, 0x30, 0x66, 0x8, 0xe, 0x3b, -0x1d, -0x5c, 0xf, 0x44, -0x31, -0x21, 0x36, -0x11, 0x2d, 0x3f, -0x2b, 0xb, 0x11, -0x29, -0x17, -0x3f, 0x12, -0x3, -0x19, 0x1a, 0xf, 0x13, 0xf, 0x8, -0x2, -0x16, 0x1c, 0xe, -0xc, 0x25, 0x3, -0x2, 0x18, -0x4,
0x6, -0x3e, 0x1, -0x50, -0x15, 0x52, -0x43, 0x1c, 0x35, -0x28, -0x1a, 0x19, 0x16, 0x43, -0x22, 0x1e, -0x21, 0x6, 0x7, -0xf, -0x14, 0x24, 0x33, 0xc, 0x21, -0x2, 0x2, -0x2, 0xd, 0x5, 0xc, 0x25, 0x3, 0xc, 0x22, -0x13, 0x1f, -0x1, -0x1a, 0x45, -0x4, -0x46, 0x1c, 0x2, -0x2a, -0x1f, -0x36, -0x2a, 0x9, 0x4c, 0x1c, -0x4, -0x6, -0x1c, -0x8, 0x15, -0xd, -0x22, 0x3d, 0x1b, -0x6, -0x20, 0x8, -0x10, -0x1a, -0x10, 0x1, 0x16, 0x15, 0x8, 0x37, 0x4, 0xd, 0xc, -0xd, 0x13, 0x10, -0x3, 0x17, 0x8, 0xe, 0x1f, 0x3c, -0x10, 0x1d, -0x3, -0x27, -0x3f, -0x2f, -0x3, 0x8, -0x31, 0x1a, 0x1, -0x3c, 0x28, 0xe, -0x45, 0x8, -0x2b,
0x39, 0x20, -0x31, 0x13, 0x2e, -0x10, -0x1b, -0x6, -0x2c, 0x10, 0x35, -0x18, 0x2a, 0xa, 0x18, -0x5, -0x7, 0x21, 0x8, 0x2c, -0x3a, -0x4e, 0x5, -0x2e, -0x19, 0x35, 0x19, -0x23, -0x9, 0x10, -0x37, 0x10, -0xe, -0x1b, -0xa, 0x23, -0x21, -0x12, -0xe, 0x2a, -0x27, -0x12, 0xe, -0x10, 0x17, -0x2d, 0x6, -0x5, -0x21, 0x31, -0x2f, 0xd, 0x29, 0x19, 0xb, 0x17, 0x15, 0x25, 0x12, -0x3, -0x10, -0xe, -0x14, -0x30, -0x21, 0x8, 0x2f, -0x23, -0xf, 0x11, -0x27, -0xa, -0x13, -0x15, -0x10, -0x11, -0x16, -0x22, -0x1a, -0xe, -0x23, -0x3f, -0x14, 0x4, 0x12, 0x5, 0x14, 0x49, 0x3, 0x2, 0x4, 0x3, 0x13, 0x3, 0x0, 0x14, 0x10, -0x2, -0x1, -0x3,
-0xd, 0x11, 0x4, -0x21, 0x24, 0x2, -0x22, 0x6, -0x5, -0x11, 0x28, -0xc, -0x12, 0x6, -0x1c, -0x8, -0x32, -0x3b, -0x1e, 0x19, 0x2b, -0x1b, -0x11, 0x8, -0x12, -0x4, 0x21, 0x0, -0x15, 0x1d, -0xf, -0x20, -0xa, -0x24, 0xd, -0x47, -0x13, 0x61, 0x10, 0xb, 0x36, -0x4, -0x19, 0xf, -0x46, -0x4, -0x46, -0x2, 0x2a, -0x25, 0x3a, 0x11, -0x3f, 0x3f, -0x45, -0x12, 0x4e, -0xd, 0x2, 0x18, -0x9, -0x1, 0xa, 0xa, 0x18, 0x37, 0x16, 0x8, 0x25, 0x5, 0x19, -0xa, -0x4e, 0x32, 0xf, -0x3f, 0x7, 0x13, 0x24, -0x10, -0xb, -0x5, -0x7, -0xd, -0x7, -0x6, -0x2c, -0x13, -0x1c, 0x2e, -0x1e, -0x1d, 0x35, -0x21, -0x27, 0xf, -0x1, -0x13, -0x29, -0x1a,
0xa, 0x26, 0xd, 0x13, 0x2a, 0xd, -0x1, 0x14, 0xb, 0x19, 0x19, 0xa, -0x3, 0x1, 0x5, 0x2, 0x7, -0xe, 0x18, 0x20, -0x10, 0x7, 0x5, 0x3, -0x5, -0x4, -0x6, -0x14, -0x1b, -0xc, -0x10, -0xd, 0x2, 0x28, 0xc, -0x14, 0x43, 0x11, -0x28, -0x8, -0x29, -0x1d, 0x1, 0xa, 0x8, 0x8, 0x15, 0x0, 0x5, 0x8, 0x1, 0x27, -0x7, -0x9, 0x1d, 0x14, -0x15, -0x1f, 0x1, -0x6, -0x20, 0x1f, 0x7, -0x1f, -0x9, 0x27, 0x1, -0x23, -0xd, 0x23, 0x2b, 0x6, -0x10, 0xb, -0x36, -0x16, -0x27, 0x9, 0xb, 0x1, -0x11, 0x2f, 0x4, -0x27, 0x27, 0x4, -0x39, 0x7, 0x1a, 0x6, 0x6, 0x36, 0x5, -0x28, -0x3a, -0x19, -0x1c, -0x35, -0x3a, 0x9,
-0x18, -0xf, 0xa, -0xa, 0x4, -0x21, -0x2a, -0x1e, -0x3, -0x11, 0x4, -0x21, -0x1a, -0x13, -0x25, -0x2e, -0x25, -0x21, 0xc, 0x3f, -0x15, 0xc, 0x37, 0x32, -0xb, -0x12, 0x6, 0x8, 0x9, -0xa, 0x10, 0x8, 0x42, 0x43, 0x2d, -0x20, -0x17, -0x1e, -0x1a, -0x21, -0x15, -0x1d, -0xb, -0x26, -0x22, -0x8, -0x32, 0x19, 0x20, 0x1a, 0x1a, 0x24, -0x2b, 0x28, 0x26, -0x3b, 0x13, -0x8, -0x28, 0x2c, -0xc, -0x11, 0x34, -0x1a, -0x1f, 0x15, -0xa, -0xc, -0x19, -0x26, -0x7, -0xb, -0xe, -0x33, 0x12, 0x3d, 0xb, -0xc, -0xe, -0x1, -0x17, -0xd, 0x1, -0x13, -0x2d, 0x53, -0x16, -0xd, 0x39, -0x19, 0x1a, 0x18, -0x7, -0x27, -0xd, 0x4, 0x1b, 0x1, 0x1a, 0x2,
-0x4, -0xe, -0x26, 0xa, 0x15, 0x19, -0x9, 0xd, 0xa, 0x9, -0x1f, 0x13, -0x2, -0xd, 0x1, -0x27, -0x4, -0xe, 0x9, 0x1, -0x3, 0x8, -0xd, -0x2, -0xe, -0x6, 0xa, -0xb, -0x6, -0x10, 0x14, 0x1d, -0x11, 0xf, -0xc, 0x2, 0x1, 0xa, -0xd, -0x10, 0x6, 0x1a, 0x16, -0x15, -0x11, -0xc, 0x3, -0x7, 0x11, -0xa, 0x6, 0x30, 0x2, 0xc, -0x9, 0x1, -0x9, 0x8, -0x9, 0xe, -0x12, 0x29, -0x1, 0x2, 0x6, 0x17, 0x2a, -0x19, 0x7, -0xd, -0xe, -0x9, 0x3, 0x9, 0x1d, -0x13, 0xc, 0x1c, 0xa, 0x5, 0x15, 0x8, -0x7, 0xd, 0x2, 0x25, 0x18, -0x27, 0x19, -0x13, 0x16, 0x16, 0x2e, -0x12, -0x1b, 0x11, 0x16, 0x11, 0x39, 0x1c,
0xb, 0x1d, 0xa, 0x3b, -0x22, -0x5, -0x2, 0x11, 0x28, -0x2, -0x1, -0x10, 0x20, -0xa, 0x2e, -0xe, -0x37, 0xa, 0x2, 0x34, 0x1f, -0x7, 0x14, 0x28, -0xb, 0x4, 0x30, -0xa, -0xe, 0x23, 0x2b, -0x14, -0x1e, 0xd, 0x1f, -0x15, -0xf, 0x25, 0x26, -0x15, -0x2a, -0x1c, -0x5, 0x5, -0x19, -0x17, -0x19, -0x14, -0x7, -0x9, -0x18, -0x2f, 0x3, 0x12, -0x5, -0x3, 0x27, -0x1e, 0x8, 0x12, -0x1a, 0x8, -0xa, 0x1d, -0x1, -0x10, 0xe, -0x11, 0xb, -0x13, -0x8, 0x2, 0x5, -0x1b, 0x5, 0xb, 0x2a, 0x9, 0x1e, -0xc, 0x30, 0x2a, 0x1, -0x1b, 0x1a, -0x14, -0x1b, 0x0, 0x0, 0x0, 0x0, 0x0, 0x0, 0x0, 0x0, 0x0, 0x0, 0x0, 0x0, 0x0,
0x0, 0x0, 0x0, 0x0, 0x0, 0x0, 0x0, 0x0, 0x0, 0x0, 0x0, 0x0, 0x0, 0x0, 0x0, 0x0, 0x0, 0x0, 0x0, 0x0, 0x0, 0x0, 0x0, 0x0, 0x0, 0x0, 0x0, 0x0, 0x0, 0x0, 0x0, 0x0, 0x0, 0x0, 0x0, 0x0, 0x0, 0x0, 0x0, 0x0, 0x0, 0x0, 0x0, 0x0, 0x0, 0x0, 0x0, 0x0, 0x0, 0x0, 0x0, 0x16, 0x9, -0x15, 0x21, -0x17, -0x3, 0x3, -0x8, -0x17, 0x2d, 0x10, 0xf, -0x13, -0x1, -0x5, -0x12, -0xa, -0x8, 0x9, 0x3, 0x4, 0xd, -0x16, -0xb, 0x11, 0x12, 0xe, -0x8, 0x4, 0x5, 0x5, -0x5, 0xa, -0x4, 0xb, -0x15, 0x9, -0x11, -0x3, -0xf, -0x10, 0x4, -0xb, -0x1e, -0x3, 0x0, 0x3, -0x1c, 0xd,
-0x17, 0x9, -0x2a, -0x10, 0x12, 0x12, 0x3a, 0x8, -0x4, -0x18, -0x9, 0x14, 0x5, 0x8, 0x8, -0xd, 0x0, -0x8, 0x17, 0x9, 0x4, 0x7, 0x22, -0x5, -0xd, 0x2c, 0x10, -0x15, -0x8, -0xc, 0x5, -0x1f, -0x4, 0x25, 0x1a, -0xe, 0xc, -0x10, -0x16, 0x22, -0x1f, 0x6, 0x17, 0xc, -0x23, 0x2d, -0xe, 0x2b, 0xe, 0x3, 0x12, 0x4, 0x7, -0xd, -0x11, 0xb, -0x4, -0x1a, 0x3, -0x8, 0x3, 0x4, 0x1b, 0x11, 0xd, 0x14, -0x7, 0xc, -0x5, 0x1b, -0xb, 0xc, -0x2, -0x1a, -0x18, -0x7, 0x10, -0xa, -0x4, 0x6, -0x4, -0x2b, 0x28, 0x8, -0x1f, 0xc, 0x7, 0x17, -0xd, 0x18, 0xd, 0x27, 0x20, 0x14, 0xc, 0x2, -0x15, -0x27, -0x22, -0x10,
0x2e, 0x13, 0xa, -0x27, 0xb, 0x18, -0x28, -0x7, 0x27, -0x9, 0x11, -0xb, -0x13, -0x26, -0x2b, 0xa, 0x7, 0x9, -0x21, -0xc, 0x18, 0x20, -0x25, -0x20, 0x13, -0xf, 0x0, 0x3d, 0x5, 0x18, -0x19, 0x38, -0x3, 0x20, -0x1f, -0x3c, 0x27, 0x13, 0xd, -0x3, -0x7, 0x10, 0xb, -0x15, 0x25, -0x2, 0x3c, 0x0, -0x17, -0xa, -0x1f, -0x20, -0x26, 0x13, 0x8, 0x7, 0x19, -0x42, 0x5, 0x1, 0x2, -0x1e, 0x7, 0x49, -0x10, 0xb, -0x20, 0x6, 0xb, 0x23, 0x3, -0x10, 0x20, -0x25, -0x21, -0x12, 0x4, 0xd, 0x0, -0x22, -0xe, -0x8, -0x1, 0x7, -0x12, 0x3, 0x32, 0x22, 0x4, -0x4, 0x23, -0x12, 0x1c, 0x26, -0x14, 0x12, 0x12, 0x16, -0x40, 0x2,
0x16, 0x18, -0x1d, 0x1f, -0x1d, 0x6, -0x13, 0x7, -0x24, -0x3, -0x13, 0xb, -0xb, 0x7, -0x11, -0xd, -0x8, 0x15, 0x9, 0x6, 0xf, 0x8, -0x17, -0x5, -0xe, 0xb, 0x2, -0xe, 0x11, -0x14, -0x12, -0x1, 0xd, 0x2d, -0x3, -0x15, -0xf, -0x8, 0xf, -0x7, -0xc, -0x1, -0xe, -0xa, 0x1, -0x3, 0x13, -0x1d, 0xd, 0x5, -0x1c, -0x1c, -0xe, 0xb, -0x23, 0xc, 0x3, 0x1b, -0x2e, 0x46, -0xe, 0x27, -0x3, -0xd, -0x3, -0x25, -0x18, -0x1c, -0xf, -0x12, -0xc, 0x15, 0x1, 0x3, -0x15, 0x8, -0xf, 0xb, -0x16, -0x10, -0xb, 0xb, 0x0, 0x8, 0x4, 0x6, -0xa, -0x10, -0x3, 0x8, -0x8, 0x4, 0x4, -0x2, 0xe, 0x0, -0x2, -0x11, 0x8, 0xf,
-0xc, -0x6, 0x9, 0x3, -0x8, 0x5, 0x19, 0x1f, -0xf, -0x5, 0x15, 0x9, -0xb, 0x7, 0x21, -0x3, -0xb, -0xe, 0x16, -0x3, 0x7, 0x8, -0x9, 0x12, -0x6, 0x14, 0xe, 0x5, -0x15, -0xa, -0x7, 0xc, 0x3, 0x4, 0x19, 0x2e, -0x9, 0x26, 0x42, -0x1c, 0x32, 0x2a, -0x13, 0x8, 0x26, -0x8, 0x2b, -0x6, 0x27, -0x7, 0x24, -0x46, 0x41, -0x7f, -0x17, 0x4, -0x6, -0x3, -0x36, 0x15, -0x2e, 0x1c, 0x13, 0x17, 0x5, -0x5c, 0x2a, 0xa, 0x14, -0x6, 0x36, -0x17, 0x8, -0xa, 0x29, 0x11, -0x12, 0x11, 0x20, 0x3f, -0x10, 0x8, -0x1f, 0x1a, 0x2f, -0x40, 0x8, 0x1a, 0x1f, 0x20, -0x10, -0x1e, -0x3c, -0x56, -0x11, 0xa, -0x32, -0x1c, 0x32, -0x25,
-0x57, 0x0, -0x28, -0x15, 0x27, 0x4, 0x15, 0x0, 0x7, 0x4, -0x15, -0x17, 0x5a, -0x3, 0x11, -0x41, -0x12, 0xa, 0xd, -0x9, 0x13, 0x28, 0x0, 0x14, 0xe, -0x20, -0x8, -0x4b, 0x10, 0x0, 0x3, 0x31, -0xd, 0x2d, 0x0, 0x12, 0xf, 0x1e, -0x14, -0x20, 0x15, 0x12, -0x6, -0x19, -0x1e, 0x4, 0x0, -0xd, -0xb, 0x12, 0x4c, 0x19, -0x1e, -0x9, -0x1, 0x1, -0x3, -0x7, 0x2, -0x11, -0x20, 0x25, 0x1a, 0x0, 0x0, 0x0, 0x0, 0x0, 0x0, 0x0, 0x0, 0x0, 0x0, 0x0, 0x0, 0x0, 0x0, 0x0, 0x0, 0x0, 0x0, 0x0, 0x0, 0x0, 0x0, 0x0, 0x0, 0x0, 0x0, 0x0, 0x0, 0x0, 0x0, 0x0, 0x0, 0x0, 0x0, 0x0, 0x0, 0x0,
0x0, 0x0, 0x0, 0x0, 0x0, 0x0, 0x0, 0x0, 0x0, 0x0, 0x0, 0x0, 0x0, 0x0, 0x0, 0x0, 0x0, 0x0, 0x0, 0x0, 0x0, 0x0, 0x0, 0x0, 0x0, 0x0, 0x0, 0x0, 0x0, 0x0, 0x0, 0x0, 0x0, 0x0, 0x0, 0x0, 0x0, 0x0, 0x0, 0x0, 0x0, 0x0, 0x0, 0x0, 0x0, 0x0, 0x0, 0x0, 0x0, 0x0, 0x0, 0x0, 0x0, 0x0, 0x0, 0x0, 0x0, 0x0, 0x0, 0x0, 0x0, 0x0, 0x0, 0x0, 0x0, 0x0, 0x0, 0x0, 0x0, 0x0, 0x0, 0x0, 0x0, 0x0, 0x0, 0x0, 0x0, 0x0, 0x0, 0x0, 0x0, 0x0, 0x0, 0x0, 0x0, 0x0, 0x0, 0x0, 0x0, 0x0, 0x0, -0xe, 0x26, 0x2c, 0x13, -0x15, -0x17, 0xb, 0x20, 0x19,
0x14, 0x1a, 0xf, 0xd, 0x23, -0x5, -0x1, -0xb, -0x14, 0x35, -0x6, 0x20, 0x3, -0x1c, 0x15, 0x17, -0x16, 0x0, 0xa, -0x12, 0x1a, -0x1e, 0x18, 0xb, 0x9, -0x7, -0x12, 0x1, -0x8, -0x14, 0x26, 0x22, -0x7, 0x8, -0x2f, 0x4b, -0x8, -0x11, 0x34, 0x29, 0xe, 0xb, 0x1a, 0xb, -0x5, -0x3, 0xf, 0x1d, -0x5, 0x8, -0xe, -0xc, -0x1, 0x1, -0x1, 0x7, -0x17, 0xf, -0x16, 0x7, 0x13, 0xe, 0x5, -0x19, 0xb, 0x11, 0x14, 0x0, 0x9, -0x5, 0x31, 0x8, -0x1b, 0x8, -0x1, 0x1d, -0x23, -0x12, -0x6, 0x12, 0x3, 0x2, -0x9, 0x4, 0x8, 0x5, 0xb, 0x4, 0x11, 0x8, -0xb, -0x4, -0x8, -0x10, -0x1, -0x6, 0x8, 0x9, 0x19, 0x25,
-0xe, -0x19, 0x1d, 0x4, -0x4, 0x8, 0x3, -0x3, -0x2, 0xa, -0xd, 0xf, -0xf, 0x10, 0x1, -0x6, 0x17, -0x1a, -0x14, -0x9, 0x34, -0x4, 0xb, 0x1f, 0x0, -0x7, -0xf, -0x22, -0x5, -0x5, -0xf, -0x35, 0x6, 0xc, 0x10, -0x19, -0x2b, 0x5e, 0x4, -0x3, -0x2, 0x18, -0xf, 0x17, 0x5, 0xe, -0xb, -0x4, 0x23, -0x17, -0x1b, -0x1c, 0x8, 0x1f, -0x13, 0x17, -0x4, 0x6, 0x10, -0x1e, 0x17, -0x43, -0xa, -0x3, -0x19, 0x3, -0x10, -0xb, -0x2, -0x15, -0x24, -0x5, -0x8, -0x8, -0x1a, -0x16, -0x1c, 0x19, -0x5, 0xe, 0x22, 0x13, 0x13, 0x13, -0x1, 0x8, 0x4, 0x12, -0x6, -0x4, 0x18, -0x4, -0x21, -0x1f, 0x3, -0x1f, -0x3d, -0xa, 0x10, -0xe,
-0x5d, 0x1a, 0x19, 0x12, 0x3f, 0x2d, -0x15, 0x8, -0xc, -0x48, -0xe, 0x11, -0x20, -0x11, 0x33, -0x14, -0x1a, 0x21, -0x22, -0x15, -0x1f, -0x2, 0x26, 0x8, -0x7, -0x40, -0x4, 0x5, 0x1a, -0x17, 0x28, 0xa, -0x3, 0x2b, 0x7, 0x17, 0xf, 0x14, 0x15, -0x1f, 0xd, 0x14, 0x1e, 0x1a, 0x5, -0x1b, 0x5, -0x2, -0x4d, 0x8, -0x27, -0x22, 0x12, 0xf, 0x28, -0x2, -0x23, -0x3e, -0x28, -0x17, -0x21, -0xf, 0x3, -0x46, 0x3, -0x15, 0x13, -0x20, 0x3e, 0x24, -0x4, -0x10, 0x8, 0x1e, -0x24, -0x14, 0x12, 0x0, -0x3c, -0x1, 0x4, -0x2, -0x31, -0x32, -0xb, 0x3, 0x1a, 0xe, -0x42, 0x36, 0x16, 0x17, -0x2, -0x8, 0x18, 0x19, 0x3c, -0x2b, 0x16, 0x23,
0xe, -0x21, -0x2, 0x2a, 0xb, 0x0, 0x3, -0x5, 0x6, -0xa, 0x5a, 0x1a, -0x1d, 0x18, -0x1a, -0x23, 0xb, 0x1d, -0x2, 0x1, -0x16, 0x44, 0x31, 0x22, -0x19, -0x1a, -0x1e, 0x27, -0x18, 0x1f, 0x1b, -0x27, -0x1a, -0x11, -0x8, 0x18, 0x3, 0xf, -0x16, -0xb, 0x8, -0x47, 0x24, 0x27, -0x12, 0xb, -0x8, 0x18, -0x16, -0x12, 0xa, -0x14, 0x8, 0x2d, -0x1c, -0x12, -0x11, 0x1c, -0x10, 0x32, -0x4, 0x18, -0x21, 0x1f, -0x1c, 0x1, 0xa, -0x1, 0x1, 0x2e, -0x2a, -0xa, -0x23, -0x2, 0xa, 0x14, -0x2, 0x6, -0x8, -0x3, -0x1, -0x1, -0x9, -0x7, -0x8, 0x9, 0xf, 0x0, -0x17, 0xf, 0x7, -0x3, -0x6, 0x17, 0x2, -0x5, -0x2, -0xb, 0x8, 0x5,
0x1, -0x15, 0xf, 0x1, -0x1c, 0x0, 0xc, -0xb, 0x10, 0x9, 0x0, 0x7, -0x5, -0x6, -0xc, -0x4, 0x13, -0xf, -0x1, -0x14, -0x8, -0xe, 0x7, -0x5, 0xa, 0x8, -0xb, 0x8, 0x6, 0x5, -0x7, -0x4, 0x6, 0x13, -0x1, 0xf, 0xc, -0x3, 0xd, 0x1f, -0x18, 0x1, -0x11, 0x24, -0xc, -0xf, 0x6, -0x13, -0xc, 0x1d, 0xf, -0x2, 0x1, 0x14, -0xa, 0x26, -0x1c, 0xf, -0xa, 0x5, -0x6, -0x27, 0x12, 0x8, 0x5, -0x27, 0x11, -0x25, -0xc, 0x3, 0xd, 0xb, 0x36, -0x13, 0x1, -0xf, -0x8, -0x2, -0x1d, -0xa, 0x23, 0x4, 0x16, -0x28, 0x2, -0xe, -0x4, -0xf, 0x19, 0xa, 0x2, 0x47, -0xc, -0x8, -0x10, -0x7, 0x1e, 0x0, 0x19, 0x5,
0x11, -0x3, -0x13, 0x0, -0x3, 0xc, 0x2, 0x7, -0x17, -0x1e, -0x3, 0x18, 0x2f, -0x17, -0x20, 0xa, 0x2b, 0xd, 0xd, -0x3, 0x2, 0xe, -0x9, -0x1f, 0x27, 0x3, 0x21, -0x20, -0x2, -0xb, 0x3, 0x13, -0x3, -0x18, 0x7, 0x1f, -0x8, 0x9, -0x3a, 0x21, 0x10, -0x12, -0xf, 0xa, -0x2, -0xd, -0x1, -0x10, 0x10, -0x6, -0x1e, 0x12, -0x15, -0xb, 0x12, 0x3, -0x14, -0x7, 0x16, 0x11, -0x4, -0xe, 0x37, 0xa, -0x16, 0x14, -0xb, 0x8, -0xb, 0x15, -0x10, 0x1, 0x18, 0x12, -0x4, -0x7, -0x1e, -0xf, -0x1, -0x2, -0x1, 0x6, -0x14, 0x1c, -0x4, 0xf, 0x34, 0xf, 0x1a, -0xc, 0x15, 0x9, 0x32, -0x8, 0xc, 0x4, 0x0, 0x8, 0x16, 0x14,
-0x4, 0x18, -0x20, 0x8, -0xe, 0xf, -0x5, 0x12, 0x16, -0x12, -0x35, -0x6, -0x2, 0x3, 0x3, 0x2, -0x10, 0x5, -0xa, -0x16, 0x12, 0x8, -0x1d, 0xb, 0xf, 0x10, -0x20, 0x1f, -0x3, -0x19, 0x22, 0xb, -0xf, -0x16, 0xa, 0x0, 0x5, 0x1c, -0x23, 0x12, -0x8, -0x6, 0x7, -0x21, 0x16, 0x8, -0x6, -0x1e, -0x1c, 0xb, 0x2b, -0xf, 0x3, 0x1, -0xf, 0x2, -0xa, -0x7, -0x14, 0xc, 0xe, -0xb, -0x6, -0x7, -0x4, 0x20, 0x42, -0x1, 0x5, -0x2, 0x1f, 0x6, 0x5, 0x14, -0x14, -0xd, -0x1b, 0x15, -0x19, 0xa, -0xa, -0xc, -0x6, 0xa, 0x7, 0xe, 0x12, 0x2, -0x8, -0xc, -0x17, 0x3, -0x15, 0xc, -0xd, 0x5, -0x4, 0x26, 0xd, -0x6,
0x8, -0x2, -0xa, 0x6, 0x13, -0xa, 0x1e, -0x8, 0xc, -0x5, -0xf, 0xf, 0x5, -0x23, 0x10, 0x1a, -0x20, -0x3, -0x9, -0xc, -0x1d, 0x1, -0x2, 0x2a, 0x11, -0x27, 0xb, -0x5, -0xb, 0x14, 0x35, 0x7, -0x6, 0x6, 0x2b, 0xc, -0x11, 0x3d, -0x41, 0x37, 0x4, 0xe, -0x19, 0x0, -0x14, -0xe, -0x3, -0xa, 0xc, -0x1b, 0x1e, -0x24, 0x2, 0x14, -0x34, 0x18, 0x7, -0xf, -0xb, 0x8, 0xf, -0x1f, 0x11, 0xd, -0x19, 0xc, -0x1, 0x1b, 0x0, 0x10, 0x11, 0x18, 0x6, 0x29, 0x21, 0xa, 0x17, 0x24, 0xc, -0x1b, -0x25, 0x2, -0xf, -0xa, 0x11, 0xd, -0x5, -0x13, 0x30, -0x17, 0x3, -0x8, -0x13, 0x1d, 0x2, -0x6, -0x14, 0x2b, 0x2, 0xc,
-0x8, 0x22, -0x7, -0x3, -0x12, -0x13, 0x21, -0x24, -0xa, 0x3, 0x7, 0x1a, 0x8, 0xc, -0x3, -0x13, -0xb, 0x6, 0xd, -0x26, -0x1b, 0x16, 0x14, -0x24, -0x28, 0x13, 0x15, 0x5, 0x42, 0x24, 0x8, 0xa, 0x1, -0x4, 0x6, -0xe, -0x16, -0xc, 0x4, -0x2a, -0x12, 0x25, 0x0, -0x22, 0x2, 0x10, -0x15, 0x10, -0x8, 0x4, 0x18, -0x4, 0x9, 0x25, -0x10, 0x1f, 0xe, -0xa, -0x2f, -0x1e, 0x0, 0xe, -0x2f, 0x26, 0xb, -0x1d, 0x19, -0x13, -0x7, 0x45, -0x3, 0x22, -0x7, -0x17, -0xd, -0xc, 0x10, -0x1, -0x13, -0x16, 0x4, -0x7, 0x24, -0x29, -0x10, 0x3, -0x11, 0x7, -0x1, 0x4, -0xd, -0x14, 0x24, -0xd, -0xe, 0x15, 0xd, 0x5, 0x5, -0x6,
0xc, -0x9, 0xe, 0x5, 0x0, -0x9, 0xe, 0x16, 0x1, 0x7, 0xc, 0x7, 0xe, -0xd, -0x6, 0x6, 0x3, 0x9, 0x8, 0x0, -0xd, -0x10, 0x11, 0x3, 0xa, -0xc, 0x7, 0x4, 0x8, 0x4, 0x4, -0x5, 0x0, 0x13, 0xe, 0x2, 0x7, -0x9, 0xa, -0x9, 0x1, -0x15, -0x1, 0x0, 0x8, 0x0, 0x14, 0x1f, -0xe, 0x13, 0x1, 0x3, -0x2c, 0x1c, -0x8, 0xc, 0x45, -0x1a, -0x3, -0x23, -0xb, 0x11, 0x7, -0xc, 0x23, -0xd, 0x1b, -0x28, -0x23, -0x10, 0x8, -0x10, 0x12, -0x11, -0x15, 0xc, -0x16, 0x26, 0x0, -0x14, 0x1, -0xd, 0x9, -0x4, 0x7, -0x3, -0xd, 0xc, 0x9, -0x7, 0x5, 0x6, 0x16, -0xf, 0x3, 0x2, 0xc, 0x19, 0x32, 0x2e,
-0xb, 0x19, -0xc, 0x6, 0x5, 0x8, -0x19, 0x5, 0x4, -0x12, 0x14, 0x1, -0x5, -0x3, -0x21, -0xa, 0x27, 0x1, -0x8, -0x9, 0x5, 0x24, -0x2a, -0x19, -0x1c, -0x8, -0x18, -0x13, 0xb, 0x16, 0x15, 0xd, -0x1b, 0x2f, -0xd, -0x3, 0x8, 0x8, -0x1c, 0x0, -0x4, -0x4, 0x23, -0x14, 0x4, 0x1e, -0x3, -0x4, -0x5, -0x2, 0x23, -0x1b, 0x1, -0x24, 0xa, -0x18, -0xa, 0x21, 0x20, -0x3, -0xf, -0xf, 0x8, -0x17, 0x1, 0x7, 0x23, 0xc, 0x13, 0x17, 0x1b, 0x28, -0x25, 0xf, 0xc, 0xa, 0x17, 0x10, 0x27, 0x3, -0x3, 0x13, 0x11, 0x0, 0x3, -0x1, 0x7, 0xa, -0x3, 0x2, 0xb, -0x17, -0x9, 0xd, 0x0, -0x1, -0x4, -0x19, -0x4, -0x14,
-0x1, -0x1, -0xa, 0x3, -0x7, -0x2, 0x2, -0xf, -0xa, -0x7, 0x1, 0x4, 0x8, 0xc, 0x6, 0xa, -0x1, 0x4, 0x1, -0xa, 0x1, -0xd, 0x0, -0x10, 0x0, -0x11, -0x8, -0x17, -0x6, 0x0, -0xf, -0xb, 0x4, -0x3, 0x1, 0x7, -0x9, 0xd, 0x0, -0x12, 0x0, -0xa, -0x1, 0x9, -0x20, 0x11, -0xb, 0x12, -0x3, -0xf, -0x7, -0x1c, -0x1f, -0x27, -0x6, -0xd, 0x6, 0xd, -0x6, -0xd, -0xd, 0x8, -0x7, -0x2, -0x11, 0x11, -0x6, -0xe, -0x11, -0x1e, 0x0, -0x2, -0x5, 0x13, 0x5, -0x3, 0xc, 0xe, -0x6, -0x13, -0x11, 0x21, 0x8, 0x1b, 0x2, 0x8, -0x17, 0x3, 0x4, 0x8, -0x1, -0xb, -0x8, 0xe, 0x13, -0x4, 0x20, 0x9, 0x12, -0xd,
-0x7, 0x0, 0x4, -0x7, 0x12, 0x8, 0xc, 0x25, -0x18, -0x7, -0x1a, 0x0, 0x1c, 0xd, 0x2, -0x18, 0x5, 0x2, -0x13, 0x12, -0x33, -0x9, -0x2, 0x21, -0x2b, 0x23, 0x13, -0x25, -0x19, -0xc, 0x12, 0xb, -0x7, -0x4, -0x26, -0x18, -0x22, -0x8, 0x12, 0x24, 0x24, -0xb, -0xa, -0x12, 0x2, -0x38, 0xb, 0x26, 0x27, -0x48, -0x27, -0x6, -0x25, 0xb, -0x10, 0x26, 0xa, -0x1f, -0x1c, 0x1c, -0x9, 0x1b, 0x8, -0xd, 0x35, 0x1b, 0x1a, -0x15, 0x8, -0x15, -0x10, -0x19, 0x4, -0x17, -0x14, -0x8, 0xd, 0x57, -0x38, -0x26, 0x3e, -0x5, -0x5, 0x32, 0xf, 0x18, 0x12, 0x3e, -0x2, 0x5, -0x3, -0x27, -0xb, -0x5, 0xb, 0x1, 0x1e, 0x8, -0x24, -0x13,
0x9, 0x28, -0x19, 0x2e, -0x19, -0xd, -0x15, -0x3, -0x14, 0x2, 0x12, 0x1f, -0x18, -0x9, -0x29, 0x17, 0x12, -0x10, 0x13, -0x12, 0x6, 0xe, 0x8, 0x4a, 0x14, 0x0, 0xd, -0x3b, -0x4, 0x3c, -0xc, -0x17, -0x2, 0x4, 0x12, 0x23, 0x28, -0x10, -0x17, 0x3b, 0x8, -0x3b, 0x3, -0x2b, -0x24, -0x24, 0x3, -0x21, -0x27, 0x1, 0x21, -0x4c, -0xa, 0x16, -0x2b, 0x1e, -0x31, -0x2, -0x3, -0x35, -0x5, 0x3c, -0x32, 0x11, 0x55, 0x1, -0x32, -0x4f, 0x9, 0x1d, -0xd, -0x1d, 0x17, 0x18, -0x20, 0x2f, 0x9, -0x41, 0x2d, -0xb, 0x36, 0x8, -0x1c, -0x1f, 0x13, 0x1f, -0x24, 0x19, -0xe, -0x2, -0x7, -0xa, -0x1, -0x36, 0x20, 0x21, 0xc, -0x30, 0x18, 0x0,
-0x9, 0x4, 0x3, -0x6, -0x2, 0x1, 0x2, -0x1, -0x1, 0x9, 0xa, -0x16, -0x10, -0x3, 0x2, 0x19, 0x9, 0x3, -0x1, -0x8, -0x14, 0xa, -0x2, -0xc, -0xa, 0x5, -0x7, 0x10, -0x14, 0x2, 0x1, 0x7, 0x1, 0x16, 0x24, 0x6, -0x2, 0x17, 0x1a, 0x6, 0xe, 0x7, -0x3, -0x2, -0x4, 0xf, -0x12, 0x9, 0x10, 0x3, 0xc, 0x13, -0x1, -0xe, 0x0, -0x1, -0x1, -0x3, -0xf, 0x18, 0x5, 0x9, 0x2, 0xe, 0x31, 0x4, 0x11, -0x3, 0x11, -0x7, -0x3, 0x2, 0x5, 0x19, -0xd, -0x6, 0x1c, -0x3, -0x1, 0x23, 0xf, -0x18, -0x4, -0x8, 0x0, -0x6, 0xe, 0x6, 0xa, 0x4, -0xe, -0x1a, 0x6, -0x4, 0xf, 0xe, 0xe, 0x5, 0xd, 0x9,
-0x14, 0x1e, -0xc, -0x7, -0xf, 0x15, 0x1, 0x6, -0xf, -0x6, 0xe, 0xd, 0xc, 0xd, 0x1e, -0x3, -0x2, 0xb, 0x1, 0x14, 0x11, 0x1, 0xe, -0x4, 0x7, 0x7, -0x8, -0xc, 0xa, -0xb, 0xe, 0x1d, -0xa, 0x1, 0x3, 0x7, -0x13, 0x6, 0x6, -0x12, -0x14, -0xc, -0x7, 0xc, 0xc, 0x7, -0xe, -0x11, -0x16, 0x1a, -0xc, -0xc, 0x7, 0x11, 0x16, -0x17, -0x6, -0x2, 0x11, 0x10, 0xf, 0x17, 0x14, 0x6, -0x1d, 0x1d, -0x10, 0x14, -0x4, 0x0, 0x2, -0x13, 0xa, 0xc, -0x7, -0x5, -0xb, -0x3, -0x4, -0xc, 0x4, -0xb, 0xc, -0x1b, -0xc, 0xa, -0x9, -0x2, 0xe, -0x3, -0x9, 0x24, 0x6, -0x7, -0x2, 0x1d, 0x8, -0x5, -0x1c, -0x16,
0x3, 0x36, -0x26, 0x1d, 0x1a, 0x3, -0x10, 0x36, 0xf, 0x13, -0xd, -0x32, -0x11, 0x9, 0x2a, 0x23, 0x1, -0x2e, -0x22, -0x21, 0xf, -0x20, 0x29, 0x31, 0x2c, -0xe, 0x7, 0x13, 0xd, -0x55, -0x1c, 0x15, -0x2, 0x10, -0x24, 0x5, 0xc, -0x14, 0x0, -0x3, 0x48, 0x4, 0x6, 0x17, -0x3, 0x7, -0x13, -0x20, 0x4, 0xe, -0x1f, -0x17, -0xb, -0x15, -0x13, 0x0, -0x10, 0x2c, 0x1, -0x3c, 0x2d, -0xd, -0x8, 0x11, 0x21, 0x1e, -0x1a, 0x1b, 0x3c, 0x16, 0x25, -0x26, -0x1, 0xd, 0x26, -0xe, 0x18, -0x24, -0xa, 0x1a, -0x2, 0x17, -0x2, -0xf, -0x22, -0x11, 0x2c, 0x20, 0x10, 0x3, -0x6, 0x2f, -0x7, 0x3, 0x4, 0x21, -0x1, -0xa, -0x23, -0x3,
-0x6, -0x15, 0xf, 0x2, 0x2d, -0x1, 0xa, -0x1, -0x15, -0x33, 0x29, -0xd, 0x2c, -0x14, 0x14, -0x13, 0xf, 0x30, 0x2, -0x3, 0x0, 0x1, -0x4, -0xb, 0xf, 0x6, 0x7, 0x18, -0x4, 0x1c, 0x20, -0xd, -0x6, 0x29, 0x2f, -0x2, 0x13, 0x1, 0x2, 0x5, -0x6, 0x1a, 0x6, -0x4, 0xa, 0x37, 0xd, -0x8, -0x24, 0x0, 0x13, 0x5, 0x1b, -0x15, 0x2c, -0x3, 0x0, -0xe, 0x0, 0x1c, -0x7, 0x19, -0x12, 0x25, 0xf, -0xa, -0xd, 0x1b, -0x6, -0x4, -0x9, 0xf, -0x16, 0x6, 0xe, 0xd, 0xa, -0x10, 0x4, -0x11, -0x7, 0xb, -0x5, -0x17, 0xc, 0x10, 0xd, -0x27, 0x7, -0xd, -0x3, 0x1e, 0x2, -0xf, -0x18, 0x1a, 0x7, 0x7, -0x3, 0x30,
0x9, -0x1, 0x24, 0x1, 0x13, -0x14, 0x8, -0x3, 0x15, -0x1d, 0x21, 0x13, -0x48, 0xe, 0xb, 0x6, -0x13, 0x23, 0x12, 0x6, 0xe, -0xb, 0x1d, 0x2, -0x6, -0x1e, 0x16, 0x9, -0x13, 0x12, -0x23, 0x16, -0x19, -0x1f, -0x12, -0x15, 0x18, 0x29, -0x11, -0x1d, -0x18, -0x28, 0xe, 0xe, -0x2b, -0x14, 0x8, -0x9, 0x20, 0x9, -0xc, 0x1d, 0x3, -0x2a, -0x4, -0x7, 0x10, -0x18, -0x13, 0x0, -0xd, -0x8, 0x13, -0x6, 0x6, 0x1, -0xd, -0x9, -0xd, 0x0, -0xc, -0x5, -0x1, -0xe, 0x20, 0x65, -0x7, 0x15, -0xf, 0x0, 0xa, 0x8, 0xf, 0x1, 0x11, 0x9, -0x10, -0x7, -0x12, 0xe, 0x9, 0x0, -0x4, -0x25, 0x19, -0xf, -0x11, 0x0, 0x13, -0x12,
-0x8, -0x8, -0x16, -0x1, -0x26, -0x13, 0x16, -0xa, -0x24, -0xf, -0x2, -0xd, -0xd, -0x14, 0x6, -0x1b, -0x1c, -0x9, 0x1f, -0x23, -0x4, -0x19, -0x13, -0x39, 0xf, 0x1a, 0x20, -0x2d, -0x15, -0x25, 0x2d, -0x6, -0x42, -0x12, -0x12, 0x13, -0x16, -0x10, -0x10, 0x15, -0xa, -0x1a, -0x2c, -0x1c, -0x1, 0xf, -0x8, -0x10, -0x19, 0x68, -0xc, -0xa, -0x23, 0x37, 0x3, -0x1b, -0x15, -0x5, 0x6, -0x43, -0x1b, -0x36, -0x4, -0xb, -0x8, 0x0, -0x4, -0x7, -0x7, -0xf, -0x18, -0x1b, -0x17, 0x29, -0x13, 0x1, -0x11, 0x18, -0x1f, 0x4, 0x1b, 0x19, -0x14, -0x18, -0x2, -0xc, 0x1f, -0x12, -0x34, -0x28, -0x30, -0x25, -0xd, -0x2f, -0xc, 0x1f, -0x1b, -0x11, 0x2a, 0xb,
0x5, 0xe, -0x26, 0x2, 0x15, -0x31, 0x16, 0xc, 0x5, -0x6, -0x18, 0x14, 0x2d, -0xc, 0x30, 0x26, 0x28, -0x27, -0x19, 0x20, -0x29, -0xd, -0xc, 0x47, 0x67, 0x9, -0x27, 0x21, -0x40, -0x1c, -0x1d, -0x11, 0x22, -0x1a, 0x16, 0x48, 0x8, -0x14, -0xc, 0x5, 0x5, -0xe, 0x2a, -0x5, -0x11, 0x22, -0x10, 0x1a, -0x29, -0x9, 0x1, -0xf, -0x15, 0xc, -0x25, 0x4, 0x4, 0xd, -0xe, -0x1e, 0x1a, 0x33, -0x14, -0xd, 0x3, 0x3, -0x2, 0x7, 0xd, -0x14, 0x7, 0x3, -0xd, 0x7, -0x2, -0x7, -0x1b, -0x8, 0x1b, -0x4, -0x6, 0x20, -0x19, 0x19, 0x19, -0x20, -0xb, 0x19, -0x18, 0x23, 0xb, -0xf, 0x13, -0x9, 0x7, 0x8, 0x14, 0x19, -0x1d, -0xe,
0x15, 0x7, -0x7, 0x0, 0x0, 0x0, 0x0, 0x0, 0x0, 0x0, 0x0, 0x0, 0x0, 0x0, 0x0, 0x0, 0x0, 0x0, 0x0, 0x0, 0x0, 0x0, 0x0, 0x0, 0x0, 0x0, 0x0, 0x0, 0x0, 0x0, 0x0, 0x0, 0x0, 0x0, 0x0, 0x0, 0x0, 0x0, 0x0, 0x0, 0x0, 0x0, 0x0, 0x0, 0x0, 0x0, 0x0, 0x0, 0x0, 0x0, 0x0, 0x0, 0x0, 0x0, 0x0, 0x0, 0x0, 0x0, 0x0, 0x0, 0x0, 0x0, 0x0, 0x0, 0x0, 0x0, 0x0, -0x3, 0x1b, -0x13, 0xe, -0x1c, -0xd, 0xa, 0x4, -0x7, 0x6, 0x1, 0x8, -0x3, -0x1, 0x11, 0x0, -0xe, -0x1, 0x7, -0x7, -0x8, -0x7, -0xa, 0x8, -0x11, 0x4, -0x5, 0xa, 0x13, 0x5, -0x4, 0x0, -0x3,
-0xc, -0xa, -0x2, -0x14, -0x6, 0x3, 0x3, 0x4, -0x5, 0x10, -0x18, 0x5, 0x12, -0x5, 0x19, 0xf, -0x8, -0x2, 0x1, 0x4, -0x13, 0x9, 0x6, 0x13, -0x3, 0x3, 0x7, -0x2, 0x3, 0xa, -0xe, 0xc, 0x12, 0x3, -0x6, -0x4, 0x5, 0x6, -0xd, -0x13, -0xe, 0xd, -0x3, -0x5, 0x0, 0xe, 0xf, 0x2, -0xa, -0xb, -0x7, -0x6, -0x10, 0x1, -0x2, 0xf, -0x2, -0xf, 0xf, 0x4, -0xa, -0x8, 0x5, 0x12, 0x4, -0x2, 0x3, -0x3, -0xd, -0x4, -0x7, 0x5, 0x6, -0x2, -0xf, 0x2, -0x5, -0x3, 0x2, -0x10, -0xd, -0x12, 0x9, 0x2, 0x10, 0x1, 0x0, 0x16, -0x1, -0x8, 0x0, 0x3, -0x2, -0x3, 0x13, -0x4, -0x18, -0xb, -0x8, -0x1c,
-0xb, -0x7, 0x0, 0xa, -0x3, -0x14, 0xe, 0x30, 0x17, 0x10, -0x10, 0x1, 0xc, -0xb, 0x6, -0x9, -0x2, -0x11, 0x23, 0x3, -0x3, -0x21, 0xe, -0x5, -0x17, -0x6, -0x1, -0x6, -0x13, -0xc, 0x13, -0x13, 0x1b, -0x1f, -0x16, 0x3, -0xd, 0x9, 0x7, -0x2d, 0x9, 0x2, -0x7, 0x0, -0x9, 0xf, -0x4, 0x8, -0xe, 0x3, 0x5, 0x1f, 0x1d, 0x2, 0x3, -0x3, -0x23, 0x5, -0x9, -0xc, 0x18, -0x1c, -0xd, -0xf, -0xc, -0xc, 0x0, -0x2, -0x18, -0xf, 0x1, 0x3a, -0x14, -0x6, -0x2b, -0x19, -0x2a, 0x31, -0x37, -0xa, 0x27, 0x22, 0x23, -0xc, 0x4, 0x2a, -0x9, 0xb, 0x1a, 0x2b, -0x18, 0x9, 0x10, -0x13, -0x19, -0x1f, 0x22, -0x27, 0x1a, 0xe,
0x20, -0x4a, 0x1e, 0x3d, -0x14, -0x12, -0x9, 0xa, 0xc, 0x14, 0x11, 0x37, -0x7, -0x1c, -0x3, -0x3c, -0x2d, 0x8, -0xf, 0x3b, 0x9, -0x2d, -0xc, 0x14, -0x1f, -0x7, -0x1e, 0xd, 0xa, -0xa, 0x5, -0x8, -0x25, 0x17, -0xb, -0x2d, 0xb, -0x1, -0x19, 0x2, -0x1c, 0x2c, 0x35, 0x12, -0xc, -0x13, 0x17, 0x11, 0x1a, -0xf, -0x10, -0x7, 0x39, -0x3, 0xc, 0x17, 0x18, 0x21, 0x0, 0x2, -0xd, 0x6a, -0x17, 0x13, 0x14, -0x11, -0x1a, -0x34, -0x8, 0x24, -0x15, -0x2, 0x1, -0x17, 0x2, -0x11, -0xf, -0x2d, -0x2, -0x22, 0x40, 0x20, -0x4, 0x13, -0x1b, -0x17, 0xc, -0x13, -0xa, 0x5, 0x2, 0x8, -0xa, 0x1, 0xb, -0x16, 0x8, -0x9, 0xb, 0x1e,
0x12, -0x3, -0x17, 0xd, -0x17, 0x3c, -0x27, -0x4, 0x1b, 0x26, -0xd, 0x9, -0x21, 0x7, 0x7, 0x8, -0x20, 0x12, 0x3, -0xa, -0x12, 0x30, -0x2, -0x13, -0x2, -0x21, -0x1, -0x1a, -0x9, -0xc, -0x7, 0xc, 0x0, -0xa, 0x39, 0xc, -0x1, 0x2e, -0x6, -0x9, -0xc, -0x4, 0x11, -0xd, 0x19, -0x1e, -0xc, 0xd, -0x7, 0xc, -0x21, 0x22, 0x28, -0xd, -0x21, -0xe, -0x3, -0x9, -0x6, -0xa, -0x18, 0x2e, 0x10, -0x1, 0x0, 0x30, -0x6, -0x6, -0x15, -0x5, -0xb, 0x6, -0xb, -0x9, 0x7, -0x5, -0x6, 0x1c, 0x1b, -0x3, -0x27, 0x3, -0x1, 0xd, -0x3, 0xf, -0x9, 0x14, 0x8, -0x24, -0x14, -0x4, 0x17, 0xb, 0x8, -0xe, -0x15, 0x21, 0x12, -0xc,
0xa, 0x28, -0x18, 0x1e, 0xb, 0xd, 0xf, 0x10, -0x1, -0x1, 0x4, -0x6, -0x12, 0x0, 0xc, -0x11, 0x15, -0x2, -0x20, 0x12, 0x12, 0xa, 0x8, 0x22, 0x1f, -0x29, 0x17, 0x6, 0xd, 0x13, 0x8, 0x5, 0x15, -0x17, -0x2, -0x5, -0x1f, -0x1f, 0x5, -0x1e, 0x10, -0xf, -0x3, 0x18, 0xa, 0x0, 0x19, 0x2, -0x7, 0x2e, 0x29, -0x1d, 0x2f, 0x2c, -0x4, 0x23, 0x12, -0x1f, -0x1e, 0x2, 0x29, 0x7, -0x10, -0x5, -0x6, -0xb, -0x17, -0x2a, 0x14, 0x9, -0xc, -0x3a, 0x15, 0xf, 0x2, -0x7, -0x19, 0x4, 0x15, -0x12, 0x17, -0x4, -0x1, -0x3, 0x0, -0x6, 0x0, 0x1e, 0x0, 0x1c, 0x5, 0x0, -0x6, -0xe, 0x11, 0x1a, 0x2b, 0x2a, -0x9, -0x15,
0x10, 0x17, 0x15, -0x4, -0x7, 0x18, 0x8, 0x4, -0x1d, 0x19, -0xc, 0x6, 0xe, -0x18, 0x14, -0xe, -0x3, 0x6, 0x10, 0x1c, -0x6, -0x12, -0x15, -0x1f, 0xe, -0x3, 0x12, -0x2, -0x7, -0x7, -0x1b, -0x10, 0x4, 0x6, 0x10, -0x1e, 0x2, -0x5, 0x19, 0x14, -0x7, -0xe, -0x26, -0x6, -0xc, -0x3, 0x1a, 0xf, 0x1, 0xa, 0xd, 0x12, -0x1f, -0x1, -0x2, -0x11, -0xa, -0x14, -0x15, 0x5, 0x5, 0x5, -0xb, 0x7, 0xf, 0xb, -0x7, -0x11, -0xd, 0x0, 0x12, -0x12, 0x17, 0x8, -0x5, -0x7, 0x2, -0x3, -0x5, -0x13, -0x1, 0x27, 0x6, 0x8, 0x3, -0x3, -0x6, 0x13, 0xb, -0x8, -0xd, 0x6, -0xb, -0xc, -0x5, 0xd, -0x6, -0xa, -0x2, -0xc,
0xb, -0x3, -0x11, -0x16, 0x6, -0x2, -0x2, 0x23, -0xd, -0x4b, 0x27, 0x0, 0x16, -0x15, 0x17, -0x6, 0x19, -0x7, -0x12, -0x27, -0x3, 0x3, -0x21, 0xf, 0xc, -0xa, 0x1c, 0x62, 0x16, -0x9, 0x1c, 0x2, 0x2f, -0x19, 0x6, 0x2, 0x3b, -0x4, -0x8, -0xd, -0x2, -0x20, -0xc, 0x32, -0x18, 0xe, 0x2f, -0x33, -0x3, 0x6, 0x9, -0x3, -0x19, -0x1, 0x37, -0x33, 0x2, -0xc, 0x14, -0x1f, -0x9, 0x19, -0x15, 0x18, -0x13, -0x13, 0x6, 0x60, -0xb, -0x8, -0x2c, 0x1a, 0x5, -0x10, -0x13, -0x17, 0x14, 0x17, 0x26, -0xc, 0xa, -0x21, -0x17, -0xc, 0xe, -0x6, 0x16, -0x6, -0x3, 0x7, 0x13, 0x27, 0x3, -0x7, 0x9, 0x13, -0x6, -0x13, -0x1f, -0x1,
-0x1e, 0xd, -0x3, -0xa, -0x2, -0x4, 0x3, -0x2c, -0x6, -0x1b, 0x9, 0x6, 0x2, -0x8, -0x8, 0x10, -0xf, -0x2, -0x7, 0x1b, 0x9, -0x11, -0x1a, 0x1, -0xa, 0x1a, -0x3, 0x10, -0xd, -0x1d, 0xa, -0x9, -0xf, 0x8, 0xf, 0x1, -0x15, -0x9, 0x4, 0x15, 0x11, 0xa, 0x10, 0x11, 0xa, -0x8, -0xc, 0x20, -0x1, -0x5, -0x1, 0x23, 0x13, -0x1, 0x1a, 0x5, 0x4, -0x1a, 0x1c, -0xa, 0x1, -0x1, 0x3, 0x6, 0xa, 0x17, 0x2, 0xc, -0x6, -0x15, 0x16, -0xd, 0x3, -0x5, -0x3, 0x1, 0x0, 0x10, -0x5, -0x18, 0x10, 0xa, -0x1a, -0x7, -0xb, -0x11, 0xf, -0x1, -0x2, -0x10, 0x5, 0x1, -0x2, 0x10, 0x3, -0x6, -0x2, 0x9, 0x3, 0x12,
0x1, 0x1e, -0x25, 0x25, 0x2b, -0x11, 0x19, -0x23, -0xd, 0x34, -0x1, 0x29, 0x1c, 0xc, 0x11, 0x36, -0x45, -0xd, 0xb, 0x7, -0xe, -0x48, 0x20, 0x10, 0x48, -0xe, -0xe, -0x19, -0xb, -0x37, 0x12, 0x10, -0xb, -0x38, 0x1, 0x27, 0x2e, -0x43, 0x2f, -0x1c, 0x7, 0x27, -0x15, -0x30, -0x19, -0x2a, 0x32, 0x0, 0x21, 0x3c, 0x15, 0x2c, -0x13, -0x20, -0x1b, 0x11, 0x2e, -0xc, 0x8, 0x22, 0x26, -0x14, -0x16, 0x25, 0x4, 0xf, 0x2, 0x14, -0x7, -0x9, 0x15, -0x1e, -0x16, -0x9, 0x1d, 0x19, -0x15, 0x13, 0x10, 0x2, -0x26, -0x19, 0x6, -0x17, -0x1b, -0x9, -0x8, 0x3, 0x1, 0x16, -0x6, 0x10, -0x2b, 0x6, 0x12, 0x6, -0x1, -0x1, 0x7, 0x1a,
-0x15, -0x4, 0xf, -0x2d, 0x1f, -0xa, 0x26, -0x1b, -0x22, -0xf, 0x16, -0x15, 0x3, -0x1c, 0x1, 0x2, -0x17, 0x3, -0x14, 0x10, -0xa, -0xb, 0xc, -0x5, 0xc, 0x19, 0xc, 0x8, -0x17, 0x1, 0x2, 0x6, 0x7, -0x2, -0xe, 0x5, 0x2, 0x3, 0x7, 0x9, 0xa, 0x0, 0x1, -0xb, 0x2, -0x3, 0x17, 0x3, 0x3, 0x14, 0x5, 0x6, -0x1, -0x15, -0xb, -0x5, -0x2, 0xf, 0xf, 0xd, 0x2, -0x4, 0x25, -0x9, -0x3, 0x15, 0xe, -0x6, 0xb, -0x1, 0x19, 0x8, -0x5, 0x8, -0x4, 0x2, 0xc, -0x3, 0x1, -0x1d, -0xe, 0xc, 0xa, 0x8, -0x8, -0x11, 0x4, -0x2, -0x8, -0xa, 0x9, -0x2, 0x9, 0x8, -0x5, 0x4, 0x7, -0x5, -0x2, 0x0,
-0x3, -0x6, -0x2, -0x6, -0x2, 0x1, -0x6, -0x2, 0x3, 0x5, 0x0, -0x3, 0x6, 0x5, 0x1, 0x1, 0x6, 0x4, -0x2d, -0x22, -0x23, -0x1d, -0x2b, 0x11, -0xa, -0x3, 0x3, -0x1, 0x3, 0x4, 0x5, 0x7, 0x5, 0x5, 0x5, 0x2, -0x1, -0x7, 0x1, -0x6, 0x3, 0x4, -0x6, 0x5, 0x0, -0x1, -0x1, 0x0, 0x0, 0x4, 0x6, -0x9, -0x4, 0x1, -0x1, 0x2, -0x7, 0x4, 0x2, -0x4, 0x3, -0x1, -0x3, 0x0, -0x6, -0xa, -0x1, -0x6, -0x4, -0x2, -0x9, -0x6, 0xe, 0x11, 0x9, 0xa, 0xf, 0x5, 0x2, 0x5, 0x5, 0x2, 0x1, 0x2, 0x4, 0x5, 0x2, 0x3, 0x5, 0x1, -0x1, -0x2, -0x2, -0x5, -0x3, -0x3, -0x3, -0x6, -0x6, -0x1e,
0x0, 0xe, -0x25, -0x13, 0x1, -0xb, 0x10, -0x16, 0x2, -0xc, -0x21, -0xb, 0xf, -0xc, 0x7, -0x2d, -0x14, 0x3, 0x4, 0x3, 0x3, 0x5, 0x2, 0x0, 0x1, 0x0, -0x6, 0x4, 0x8, -0x5, -0x2, 0x6, 0x0, -0x6, 0x1, -0x4, -0x5, -0x4, -0x3, -0x5, -0x2, -0x4, -0x5, -0x1, 0x2, 0x5, 0x5, 0x2, 0x4, 0x3, 0x0, 0x0, 0x1, 0x2, 0x2, 0x0, 0x3, 0x4, 0x3, 0x2, 0x3, 0x4, 0x2, -0x1, -0x3, -0x4, -0x5, -0x6, -0x5, -0x5, -0x4, 0xe, 0x1d, 0x11, 0x1a, 0x28, 0x15, 0xd, 0x17, 0xf, 0x4, 0x9, 0x4, 0x7, 0x9, 0x2, 0x3, 0x1, 0x0, -0x1, 0x3, 0x4, 0x6, 0xa, 0x6, 0x8, 0xa, 0x5, 0x6, 0x9,
0x5, 0x9, 0xb, 0x5, 0x2, 0x2, -0x1, 0x2, 0x5, 0x3, 0x4, 0x7, 0x4, 0x2, 0x4, 0x3, -0x7, -0x2, 0x3, -0x4, 0x4, 0x8, -0x1, 0x6, 0x7, 0x3, 0x1, -0x1, 0x7, 0x6, -0x1, 0x2, 0x3, 0x1, 0x0, 0x1, 0x1, 0x1, 0x6, 0x7, 0x1, 0x4, 0x4, -0x6, -0xd, -0x8, -0x8, -0xd, -0x9, -0x2, -0x3, 0x1, 0x2, 0x3, 0x1, 0x5, 0x6, 0x3, 0x4, 0x4, 0x2, 0x2, 0x9, 0x5, 0x7, 0x9, 0x5, 0x3, 0x4, 0x2, 0x2, 0x8, 0x8, -0xc, -0x6, 0x5, -0x6, -0xf, -0x9, 0xc, 0xf, 0x0, 0x3, 0x3, -0xa, -0x4, -0x3, -0x9, 0x3, 0x2, -0x7, 0x5, 0x6, -0x7, 0x3, 0x4, 0x0, -0x2, -0x1, 0x0,
0x6, 0x6, 0x2, 0x6, 0x5, 0x2, 0x2, 0x1, 0x0, 0x4, 0x5, 0x1, 0x2, 0x4, 0x1, -0x10, 0x1, 0x3, -0xc, 0x3, 0x0, -0xa, 0x5, 0x0, 0x5, 0xa, 0xa, -0xf, -0xb, 0x1, 0x5, 0x0, -0x2, -0x6, -0x6, 0x0, -0x9, -0x3, 0x4, -0x8, -0x2, 0x0, 0x6, 0x7, 0x4, 0x3, 0x4, 0x2, 0x0, 0x0, 0x1, -0x3, -0x4, -0x5, -0x1, -0x6, -0x8, 0x1, -0x3, -0x8, 0xa, -0x1, -0x2, -0x4, 0x4, -0x1, -0x1, -0x5, -0x9, 0x5, 0x4, 0x0, 0x5, 0x6, -0x1, 0x3, 0x3, 0x1, 0x5, 0x7, 0x6, 0x3, 0x7, 0x6, 0x3, 0x5, 0x2, -0x4, -0x3, -0x2, -0x4, -0x5, -0x1, -0x3, -0x4, -0x1, -0x1, -0x6, -0x4, -0x5,
-0x5, -0x3, -0x3, -0x2, -0x1, -0x1, 0x1, 0x3, 0x4, 0x8, 0x5, 0x6, 0x8, 0x2, -0x17, -0x37, 0xc, -0x9, -0x35, -0x29, -0xd, -0x7f, -0x72, -0x4, 0x0, 0x1, -0xc, -0xc, 0x0, -0x7, -0xe, -0x1, 0x13, 0x1e, 0x14, 0x21, 0x2b, 0x13, 0x13, 0x13, 0x6, 0x5, -0x1, -0xb, 0x7, 0x4, -0xa, 0x1, 0x7, -0x8, -0x2, -0x7, -0x2, 0x5, -0x1, 0x1, 0x6, -0x1, -0x2, -0x4, -0x7, -0x4, -0x4, -0x6, -0x4, -0x3, -0x3, 0x0, 0x2, -0x2, -0x9, 0x5, 0x8, 0x1, -0x4, 0x0, -0x2, 0x6, 0x1, -0x8, 0x6, -0x4, -0x6, 0x3, -0x5, -0x4, 0x4, 0x6, 0x3, 0x4, 0x5, 0x3, 0x2, 0x1, 0x0, 0xc, 0x8, 0x1, 0x4, -0x9,
-0x5, -0xa, -0x3, -0x2, 0x4, 0x7, 0x7, -0x9, 0x3, 0xb, -0xb, -0x9, 0x1, 0x0, 0x2, 0x2, 0x2, 0x3, 0x3, 0x3, 0x3, 0x1, 0x1, 0x7, 0x6, 0x3, 0x7, 0x6, 0x1, 0x1, 0x0, -0x5, -0x9, -0x5, 0x0, 0x1, 0x2, 0x9, 0xb, 0x4, 0x2, 0x3, 0x2, 0x2, 0x5, 0x3, 0x1, 0x2, 0x1, 0x1, 0x6, 0x6, 0x4, 0x8, 0x6, 0x4, 0x3, 0x1, -0xb, -0x8, -0x4, 0x3, -0x3, -0x5, 0x7, 0x8, 0x5, -0xe, 0xa, 0xe, 0x0, 0x4, -0x6, -0x1, 0x8, 0x12, -0x2, -0x3, 0x5, 0x0, 0x0, 0x10, 0x9, -0x3, 0x8, -0x15, -0x12, 0x7, -0xb, -0x6, -0xc, -0x8, -0x1c, -0x1, -0x19, 0xc, 0x4, 0x2, -0x16, 0x0,
0x3, -0xa, -0x1e, -0x2, -0x11, -0x14, 0x1, -0x8, 0x3, -0x10, -0x15, 0xf, 0xa, 0x1e, 0x0, -0x1, 0x1c, -0x9, -0x1, 0x1a, 0x2, 0x3, 0x1, 0x6, 0x1, -0x10, -0xe, 0x3, 0x2, -0x1a, 0xf, -0x4, 0x0, 0x2e, 0x0, -0x23, -0x10, 0x9, 0x5, 0x25, 0x1, 0x22, 0x2d, 0x0, 0x0, -0x11, 0xc, 0xb, 0x19, 0x1a, 0x1a, 0x24, -0x5, 0xc, -0x2e, -0x22, -0x7, -0x4, -0x12, 0x10, 0x8, -0x3, 0x14, 0x25, 0x27, 0x12, 0x13, 0xa, -0x8, 0xd, 0x2, -0x9, -0x15, 0x1, -0x9, 0x13, -0x14, -0x11, 0x0, 0x1c, 0x1f, 0x2, -0x8, 0x20, 0x2, 0x4, 0x23, -0x14, -0x6, 0x3, 0x1c, -0x16, -0x13, 0x11, -0xd, -0x2, -0x16, 0xe, 0x0, 0x2,
0x0, 0x1, 0x7, -0x4, -0x7, 0x15, 0x5, 0x0, 0x0, 0x15, -0x9, -0xa, -0x5, 0x1, -0x4, -0xe, -0x11, -0x7, 0xe, -0x8, 0x3, 0xb, -0x8, 0xa, 0x0, 0x9, 0xe, 0x7, 0x7, 0xc, 0x7, 0x2, -0xc, 0x5, 0x1, 0x1, 0x6, -0x2, -0xc, 0x4, -0x19, 0xd, 0x0, -0x10, -0x4, 0x6, -0x1, -0x1, -0x2, -0x8, -0x13, 0x6, 0x3, 0x7, -0xb, -0x8, 0x0, 0x2, -0x1, -0x13, -0x5, -0xd, 0x0, -0x9, 0xd, -0x3, 0x2, 0x0, 0x21, -0xa, -0x9, 0x0, 0x0, 0x7, -0x1a, -0x12, -0x7, 0xa, -0x8, 0xb, 0x5, -0x13, -0x18, -0x2, -0x8, -0x21, 0xb, -0xe, 0x10, 0x2b, 0x12, -0x4, -0x8, -0xe, 0x3, -0x7, -0xd, -0x7, -0x2, 0x7,
-0x3, 0x2, -0x8, -0x1, 0x10, -0x1e, 0x0, 0xe, -0xc, -0x1e, 0x9, 0x14, -0x2, 0x3, -0xd, -0x6, 0xb, 0x4, -0x9, 0x1, 0x3, 0x1f, -0x16, -0x4, -0x11, 0xc, 0x0, -0xf, -0x2, 0x1, 0x0, -0x16, -0x18, -0x19, 0x8, 0x0, 0x0, 0x15, 0x1, -0x1f, 0x6, 0x1b, -0x1d, 0x12, 0x0, -0x12, -0x10, -0x14, -0x6, 0x17, 0xd, -0x10, 0x7, -0x14, 0x7, -0xe, 0x2, -0xe, 0xc, -0x6, -0x1, 0x7, 0x1a, -0x12, 0x2, -0x6, 0x10, -0x12, -0x1, 0x0, 0x0, -0x12, 0xb, -0x1b, 0x0, 0x0, -0x3, -0xf, 0x4, -0xa, -0xc, 0x8, 0x1f, 0xb, 0x21, 0x9, 0x11, 0x1d, 0x0, 0x2, 0x0, 0x19, -0x6, -0x1, 0x8, -0xb, -0x3, -0x15, -0x16, 0x0,
0x0, 0x23, -0x5, -0x15, -0xa, 0xf, -0x8, 0x8, 0x10, -0xe, 0x4, -0x18, 0x3, 0x11, 0x5, -0xf, 0x4, -0xc, -0x1, -0x5, 0xd, 0x14, 0x18, 0x3, 0xe, 0x4, 0x8, -0x1c, 0x3, 0x4, -0xb, 0x2, -0x4, -0x7, 0x0, -0x5, 0x4, 0x7, 0xa, -0x17, 0x7, 0x11, 0xa, 0xb, 0x9, 0x11, -0x13, -0x8, -0x8, -0x16, -0x3, -0x7, -0x16, -0xa, 0x0, 0x14, 0x23, -0xc, -0x7, 0x13, 0x1, -0xd, -0x8, 0x0, 0x0, -0xb, -0x22, 0x11, -0x29, 0xa, -0x9, 0x0, -0x11, -0x1, 0x1d, 0x1d, -0x1c, -0x4, -0x21, -0x7, -0x2, 0x0, -0x3, 0x19, -0x9, 0x12, -0x24, -0x41, -0x6, -0x1f, -0x3, -0x10, 0x5, -0xf, 0xd, -0x25, 0x12, -0x7, 0x0, -0xa,
0x1, 0xf, -0x28, -0x19, -0xf, -0x1f, -0x9, -0xc, 0x16, 0xd, -0x27, 0x19, -0x36, 0x7, 0x18, -0xd, -0x6, 0xd, 0x0, -0xc, -0x1, -0x8, 0x6, -0x4, -0x1c, -0xe, -0xb, 0x0, 0x0, -0x11, -0x7, 0xa, -0x4, 0x0, -0x17, -0xd, 0xa, -0x3, -0x15, 0xc, 0x0, 0x2, -0x2, -0x23, -0x1c, -0x9, 0x10, -0x3, 0x4, 0x4, -0x1a, 0x4, -0x4, 0xc, 0x13, -0x1a, 0x1, 0x8, 0x17, -0xd, 0x4, -0x1, 0x0, 0x8, -0x6, 0x0, 0x4, -0xa, -0x3, 0x9, -0xa, -0x6, -0x12, -0xb, 0x5, 0x1a, 0x8, 0xd, -0x6, 0x2b, 0x3, 0x0, 0x0, 0x0, 0x14, -0x9, 0x0, -0x6, 0xf, 0x4, -0xc, 0x0, 0x0, -0x8, -0x8, -0x13, 0x0, -0xb, -0x1a, -0x6,
-0x3, -0x22, 0x14, 0x25, -0x1d, -0xf, 0x8, -0x13, -0xc, -0x1, -0x1d, -0x3, 0xb, 0x0, 0x1a, -0x2, -0x1, -0x9, -0x2, -0x2, 0x8, -0xc, 0x2, -0x9, -0x20, -0x14, 0x0, 0x10, 0x3, 0x9, -0x2, -0x20, -0x2, -0x12, 0xb, 0x8, -0x26, 0x1a, -0x5, 0x0, -0xc, -0x10, -0xd, 0x17, -0x16, 0x9, 0x0, 0x7, 0xe, -0x1a, -0x25, 0x2, 0x33, 0x12, -0x10, 0x0, 0x0, 0x22, 0x26, -0xa, 0x10, 0x25, 0xd, -0x1c, -0x2, 0x8, 0xa, -0x2, -0x12, 0x1d, 0x25, -0x9, 0x2, 0xb, -0x1c, 0x14, 0x12, -0x22, -0x18, 0x9, 0xd, -0xf, 0x1, 0xf, 0x13, 0x1, 0x20, -0x3b, 0xc, 0x3, 0x0, -0x2a, 0x3e, -0x4, 0x12, -0xa, -0x1, 0x7, -0x1a, 0x7,
-0x21, -0xb, 0x29, -0x30, -0x5, -0x23, -0xa, 0x9, 0x7, 0x4, 0x0, 0x1a, 0xb, -0x2, -0xd, -0x1e, 0x22, -0x17, 0x6, 0x0, 0x0, 0x8, 0xd, 0x9, 0xe, -0x9, 0x7, 0x0, 0xa, -0x16, -0x2, 0xb, 0xe, 0x5, -0x4, 0x8, -0xa, 0x25, 0x0, 0x2d, -0xb, 0xa, -0x19, 0x6, -0x2, -0x3, 0x9, -0x18, 0x4, -0xf, -0xb, -0x10, 0x6, -0x2, 0x0, -0x11, 0x12, 0x13, -0x8, 0x4, 0x6, 0x7, -0x7, 0x26, -0x3, -0x7, -0x11, 0x18, 0x33, 0x11, -0xb, -0x17, -0x1d, 0x15, 0x0, -0x25, -0xe, 0x11, -0x7, 0xf, -0x8, 0x25, 0x12, 0x0, 0x0, 0x11, 0x25, 0xd, 0x13, 0x3, 0x3, 0x1b, -0x1c, 0xc, -0x1d, -0x6, -0x1, -0x8, 0x6, 0x10,
0x6, 0x7, 0x1, 0x5, 0x9, 0x17, 0x18, -0x8, 0xd, 0xc, 0x32, 0xe, 0x2, 0x11, -0x1a, 0x7, -0x4, -0x2, 0x0, 0x2d, 0x23, 0xd, 0x0, 0xb, -0x7, 0x9, 0x2c, -0x11, 0x35, -0x22, 0xb, 0x6, -0xe, -0x8, 0x6, -0x5, 0x3, 0x0, 0x0, 0x8, 0x1, -0x1, 0x5, -0x8, 0x4, -0xf, 0x1, 0x0, 0x0, -0x3, 0x5, 0xd, 0x0, -0x14, -0x15, 0x12, 0x9, -0xd, 0x2, -0x5, -0x20, -0x1, -0x2, -0x8, -0xa, -0xb, -0xe, -0xa, -0x2, 0x3, -0x4, 0xa, 0x1, 0x13, -0x1, 0x5, 0x0, 0x9, 0x1, 0xa, -0x3, -0x8, 0x0, 0x5, -0xc, 0x13, 0xc, -0x8, -0xa, 0x2, 0x6, -0x3, -0xc, 0x13, 0x10, 0x7, 0x12, 0x7, 0xb, -0x1d,
0x7, 0x5, 0x0, 0x4, -0x5, -0xe, -0xb, -0x7, 0x24, -0xb, 0x3, 0x0, 0x0, -0x3, 0x8, -0x1a, 0x16, 0xe, -0x14, 0x12, 0xb, -0xb, 0x7, -0xa, 0x9, -0x14, -0x7, -0x28, 0xb, 0x3, 0x12, -0x1, 0xa, 0x9, -0x9, 0x0, -0xc, 0x6, 0x8, -0x10, 0x4, 0x7, -0x3, 0xf, -0x2, 0x2, 0x0, -0x6, -0xd, 0x3, -0xe, 0x6, 0xd, 0xc, 0x7, -0x15, 0x13, -0x4, 0x4, 0x1d, 0x0, 0xe, -0xd, -0x2, 0xb, -0x10, 0x0, 0x18, -0x5, 0x0, 0x3, -0x1d, -0x4, -0x4, 0xc, 0x0, 0x0, 0x22, -0x4, -0x11, -0x12, -0x18, -0x1a, 0x3, -0xb, -0x17, -0xf, 0x5, -0x29, 0x2, -0xd, -0xa, -0x22, -0x35, 0x6, 0x13, -0x8, -0x19, -0x7, 0x21,
-0x8, 0x0, -0x12, 0x2a, 0x4, -0xd, -0x10, -0x4, -0x26, -0xf, 0x0, -0x1f, -0x16, -0x16, 0x9, -0x1e, -0xd, -0x11, 0x5, -0xe, 0x1a, 0x36, 0x1b, 0x12, -0x4, 0x3e, -0x26, -0x5, -0x7, -0x14, 0x0, -0xd, 0x3, -0xb, 0xa, 0x27, 0x9, -0x6, 0x3, 0x0, 0x0, 0x7, 0x0, -0x2, 0x22, -0x7, 0xe, 0x5, -0xd, 0xf, 0x1, 0x18, 0x9, -0xd, 0x11, -0x11, 0x12, 0xc, -0x11, 0x19, 0x7, -0x7, 0x24, 0x4, -0x6, 0x1, -0xe, 0x5, -0x10, 0x2, 0x5, 0x9, -0x5, -0x7, 0x0, 0x1c, 0x27, -0xf, 0x16, -0x9, -0x6, 0x4, -0x4, 0x6, -0x1, 0x4, -0x22, -0xa, 0xa, -0x9, -0x6, 0x1b, -0xa, -0x14, 0x0, 0xa, 0x2, -0x2, 0x7, 0x0,
-0x2c, -0xd, -0x10, 0x0, 0x0, -0x16, -0xa, 0x4, -0x1a, -0x27, -0x1e, -0xe, 0x4, -0x19, 0x3c, 0x1c, 0x5, -0x12, 0x1e, -0x21, -0x7, 0x0, -0x8, -0x13, 0xc, -0xe, 0x10, 0x29, 0xa, 0x17, 0x1e, 0x6, -0x10, 0x34, 0x18, -0xa, -0x3, -0xf, 0x0, 0x2d, 0x7, -0x1e, 0x4, -0x3a, 0x7, 0x0, -0x19, -0xe, -0x14, 0xd, 0x0, -0x30, 0x25, -0x12, 0xc, 0x0, 0x0, 0x0, 0x0, 0x0, 0x0, 0x0, 0x0, 0x0, 0x0, 0x0, 0x0, 0x0, 0x0, 0x0, 0x0, 0x0, 0x0, 0x0, 0x0, 0x0, 0x0, 0x0, 0x0, 0x0, 0x0, 0x0, 0x0, 0x0, 0x0, 0x0, 0x0, 0x0, 0x0, 0x0, 0x0, 0x0, 0x0, 0x0, 0x0, 0x0, 0x0, 0x0, 0x0, 0x0,
0x0, 0x0, 0x0, 0x0, 0x0, 0x0, 0x0, 0x0, 0x0, 0x0, 0x0, 0x0, 0x0, 0x0, 0x0, 0x0, 0x0, 0x0, 0x0, 0x6, -0x2d, 0xc, 0x0, 0x1e, 0x2, -0xb, 0x1, -0x2a, 0x18, -0x27, -0x14, 0x0, 0x0, 0x14, 0x0, -0x16, 0x18, 0x3, 0x7, -0x8, 0x17, -0xd, -0xf, 0x25, 0x2, 0xf, 0x6, 0x26, -0x4, 0x1, -0x15, 0x11, -0x17, 0x1, 0xb, 0x0, 0x9, -0x2b, 0x15, -0xd, 0x1, -0xa, 0x8, -0x9, 0x1b, -0x32, 0x0, 0xe, 0xf, 0x1, -0x9, -0x3, 0x6, 0x4, -0x13, 0x6, -0xe, 0x23, 0x5, -0x1b, -0x2c, -0xc, -0xf, 0x0, 0x0, 0x0, 0x0, 0x0, 0x0, 0x0, 0x0, 0x0, 0x0, 0x0, 0x0, 0x0, 0x0, 0x0, 0x0, 0x0,
0x0, 0x0, 0x0, 0x0, 0x0, 0x0, 0x0, 0x0, 0x0, 0x0, 0x0, 0x0, 0x0, 0x0, 0x0, 0x0, 0x0, 0x0, 0x0, 0x0, 0x0, 0x0, 0x0, 0x0, 0x0, 0x0, 0x0, 0x0, 0x0, 0x0, 0x0, 0x0, 0x0, 0x0, 0x0, 0x0, 0x0, 0x0, 0x0, 0x0, 0x0, 0x0, 0x0, 0x0, 0x0, 0x0, 0x0, 0x0, 0x0, 0x2, 0x0, 0x1, 0x1, 0x0, 0x0, -0x2, 0x2, 0x0, -0x2, 0x0, 0x0, 0x1, 0x1, 0x1, 0x0, 0x1, -0x2, 0x1, 0x4, 0x0, 0x0, 0x0, -0x1, 0x0, 0x1, -0x2, 0x1, 0x2, 0x0, -0x1, 0x1, 0x0, -0x1, 0x0, 0x1, 0x1, 0x0, -0x1, 0x0, 0x0, 0x0, -0x1, 0x0, -0x1, 0x0, -0x1, 0x0, 0x0, 0x0, -0x1,
0x0, 0x0, -0x1, 0x0, -0x1, 0x2, 0x4, 0x1, 0x3, 0x5, 0x0, 0x14, -0x5, -0x15, 0x0, -0xc, 0x3, 0x0, 0x6, -0xb, 0x12, 0x2, 0x5, 0x0, 0x0, -0x4, 0x2, -0x6, 0x5, -0xd, -0x9, -0x12, -0xf, -0x8, -0xd, 0x10, -0x3, -0x7, -0x6, -0x1, -0x4, 0x4, 0x9, 0xd, -0x1, 0x12, -0x11, 0x2, 0x2, -0x7, 0xa, 0x1, -0xc, -0x4, -0x1b, 0xe, -0x7, -0xb, 0x0, 0x8, 0xa, 0x7, 0x2, 0x18, -0x2, 0x0, -0x17, -0x1, -0x2, -0xe, 0x6, 0x8, -0x5, 0x8, -0x11, -0x5, -0x17, 0x16, 0x0, 0x12, 0xd, -0x3, 0xb, -0x9, 0x3, 0x15, 0x2, 0x0, 0x0, -0x1, 0x9, -0x6, -0x6, 0x14, -0x13, 0x3, -0x13, -0x17, 0x5, -0x9,
0x5, 0x1, 0xb, 0x5, 0xe, 0x4, 0x7, -0x1c, 0x6, 0x7, -0xf, -0xb, -0x4, -0x1, 0x14, 0x3, 0x6, 0x15, 0x4, -0xf, 0x15, -0x14, 0x0, 0x10, 0x26, -0x14, 0x10, -0x5, -0xa, 0x9, 0x5, -0xa, 0x5, -0xb, 0x1a, 0x1, -0xa, -0x4, 0xf, 0x0, 0x0, 0x0, 0x0, 0x0, 0x0, 0x0, 0x0, 0x0, 0x0, 0x0, 0x0, 0x0, 0x0, 0x0, 0x0, 0x0, 0x0, 0x0, 0x0, 0x0, 0x0, 0x0, 0x0, 0x0, 0x0, 0x0, 0x0, 0x0, 0x0, 0x0, 0x0, 0x0, 0x0, 0x0, 0x0, 0x0, 0x0, 0x0, 0x0, 0x0, 0x0, 0x0, 0x0, 0x0, 0x0, 0x0, 0x0, 0x0, 0x0, 0x0, 0x0, 0x0, 0x0, 0x0, 0x0, 0x0, 0x0, 0x0, 0x0, 0x0,
0x0, 0x0, 0x0, -0x18, -0x4, 0x4, 0x0, 0x1, -0xa, 0x0, -0x8, 0x1e, 0x8, 0x1, -0x7, 0x0, 0x0, 0x6, 0x2, -0x4, 0x1e, 0x1, 0x13, -0x5, -0x4, 0x4, -0x1b, -0x9, 0x6, -0x22, -0x4, -0xc, -0x17, 0x27, -0x10, -0x7, -0x12, -0x2, -0xf, -0x3, -0x6, 0xb, -0xe, 0x1b, 0x2, 0x0, -0xa, -0x3, 0xf, 0x34, 0x0, -0x21, -0xf, -0x1c, 0x3, 0x9, 0x3, -0xe, -0x8, 0x0, -0xb, 0x8, 0xb, 0x1, -0xc, 0x9, 0x4, 0x0, 0x0, 0x0, 0x0, 0x0, 0x0, 0x0, 0x0, 0x0, 0x0, 0x0, 0x0, 0x0, 0x0, 0x0, 0x0, 0x0, 0x0, 0x0, 0x0, 0x0, 0x0, 0x0, 0x0, 0x0, 0x0, 0x0, 0x0, 0x0, 0x0, 0x0, 0x0, 0x0,
0x0, 0x0, 0x0, 0x0, 0x0, 0x0, 0x0, 0x0, 0x0, 0x0, 0x0, 0x0, 0x0, 0x0, 0x0, 0x0, 0x0, 0x0, 0x0, 0x0, 0x0, 0x0, 0x0, 0x0, 0x0, 0x0, 0x0, 0x0, 0x0, 0x0, 0x0, 0x8, 0x22, 0x5, 0x0, 0x15, 0xd, 0xe, -0x3, -0xc, -0x1, -0x28, 0xf, 0x0, 0x0, -0x8, -0x5, 0x1f, -0x1, -0x38, 0x8, 0x15, -0x2, 0x36, 0x5, 0x1b, 0x2, -0x2a, 0x12, -0x15, -0x1e, 0x29, -0x2e, -0x6, 0x5, -0x40, -0x13, 0xb, -0x6, -0x8, -0x15, -0x2c, -0x8, 0x38, -0x1c, 0xd, -0xf, -0x20, 0x0, 0x7, 0x15, -0x4, 0x1, -0x1, -0x4, -0x5, 0xc, 0x2, -0x27, 0x7, -0x10, 0x24, -0x3, 0xd, 0x1, 0xb, 0x1e, -0x13, 0x0, -0x12,
0x2, -0x7, 0x0, 0x1, 0x6, -0x21, -0x14, 0x0, 0x0, -0x1, -0xc, -0x22, -0x4, 0x13, -0x1e, 0x6, -0x14, 0x19, 0x25, 0xb, -0xd, 0x14, 0x1d, -0x2d, -0x4, 0x9, 0xe, -0xb, -0xc, 0xf, 0x10, -0x2c, 0x16, -0x1b, 0x36, -0x27, -0xd, -0x38, -0x18, 0x13, 0x19, 0x10, 0x0, -0x1e, 0x1d, 0x4, 0xd, 0x4, -0x3, 0xd, 0x7, -0xe, -0x27, -0x31, -0x2a, 0xe, -0x1, -0x22, 0x12, 0xb, 0x23, -0x6, 0x0, 0x44, -0x12, -0x4, 0x4, -0x11, -0x19, 0x1e, 0x19, 0x0, 0x0, -0x19, -0x14, 0xc, -0x3d, 0x2c, -0x2, 0x5, 0xe, 0x22, -0x11, -0x10, -0xc, -0x4, -0xe, 0x44, -0x1d, 0xb, -0x12, -0x14, -0xa, 0xa, -0x8, -0x1f, -0x12, 0x6, 0x1d, -0x1,
0x7, 0x19, 0x2c, 0x4, 0x1b, -0xf, 0x0, 0x1a, -0x8, 0x2, 0x0, 0x4a, -0x1c, -0x13, 0x12, 0x17, 0x13, -0x28, -0x11, -0x1c, 0x0, 0x29, 0x32, 0x8, 0x0, -0x15, 0x0, 0x22, -0x7, -0x2, -0x3, -0xd, -0x5, -0x17, 0x19, 0x0, 0x0, -0x27, -0xb, -0x28, 0x7, -0x1f, -0x15, 0x1a, -0x3, -0x30, 0x14, 0x13, -0x16, -0x1e, 0x6, -0xa, 0x1c, -0x1b, 0x1c, 0x1c, 0x18, 0x9, 0x2a, 0xe, -0x11, -0x5, -0xd, 0xd, 0x5, 0x2, -0xe, 0x42, -0x10, -0x1f, 0x0, -0x1, -0x11, 0x4, -0x6, -0x1f, -0xc, -0x18, 0x0, -0x16, -0x1, -0x9, 0x2, -0x22, 0xb, -0x1b, 0x2, 0x0, 0x0, 0x0, 0x0, 0x0, 0x0, 0x0, 0x0, 0x0, 0x0, 0x0, 0x0, 0x0,
0x0, 0x0, 0x0, 0x0, 0x0, 0x0, 0x0, 0x0, 0x0, 0x0, 0x0, 0x0, 0x0, 0x0, 0x0, 0x0, 0x0, 0x0, 0x0, 0x0, 0x0, 0x0, 0x0, 0x0, 0x0, 0x0, 0x0, 0x0, 0x0, 0x0, 0x0, 0x0, 0x0, 0x0, 0x0, 0x0, 0x0, 0x0, 0x0, 0x0, 0x0, 0x0, 0x0, 0x0, 0x0, 0x0, 0x0, 0x0, 0x0, 0x0, 0x0, -0x8, -0x1a, 0x27, 0x0, 0x1b, 0xb, 0x7, 0x7, -0x15, 0x7, -0xf, -0xe, 0x0, 0x0, 0x8, 0xb, 0x5, 0x10, -0x4, 0x3, -0xc, 0x8, -0x1a, -0xe, -0x22, -0x2, 0x3, -0x3, 0x1e, 0x1, -0x3, 0x0, 0x0, 0x3, -0xd, -0x1, 0x13, -0xf, -0xc, 0x7, -0x6, 0xa, -0xf, -0x22, -0x1c, 0xa, 0x4, 0x0, 0x4,
0x4, 0x0, -0xd, 0x4, -0x3, -0x7, -0xc, -0xb, 0x2, 0xa, -0x10, 0x7, 0x4, 0x3, 0x18, -0x10, 0x12, -0x23, 0x0, 0xf, -0x17, -0x3, -0x8, 0x16, 0x6, -0x17, 0x8, 0x0, 0x0, -0x19, -0x15, 0x19, -0xf, 0x4, 0x2a, -0x3, -0x22, 0x10, -0x25, -0x19, 0xa, -0x11, -0x2a, 0x27, 0x8, 0x0, -0x11, 0xd, -0xd, 0x4, -0x23, 0x10, 0xa, 0x2, 0x21, 0x36, 0x16, 0x17, 0x73, -0x2, 0x9, -0x14, 0x0, -0x16, 0x27, 0x28, -0x11, 0x9, -0x4, -0xa, 0x21, -0xe, -0x13, 0xf, 0x13, -0xf, -0x19, 0x1a, 0x1a, 0xa, -0x17, 0x1b, 0x0, -0xd, 0xa, 0x17, -0xa, 0x28, 0xc, 0x4, 0x18, 0x0, 0x0, 0x20, 0x13, 0x0, -0x1, -0xb, 0x10, -0x9,
-0x1d, 0xa, -0x12, -0x1c, 0xc, 0x29, 0x9, -0x4, 0xa, 0x3a, 0x26, -0xd, 0x12, 0x28, -0x9, -0x11, -0x6, 0xb, -0x11, 0xa, 0x3, -0x1a, -0x12, -0xe, 0x22, -0x19, 0x0, 0x17, 0x50, -0x3, -0x25, 0x23, 0xe, 0x1d, 0x5, 0x5, 0x53, 0x13, 0x13, 0x18, 0x18, 0x14, 0xe, 0x9, 0x9, -0x1a, 0x0, 0x1, 0xc, -0x1, 0x2, 0x5, -0x6, 0x16, -0x12, 0x0, 0x0, 0x12, 0x0, -0x6, 0x4, 0xd, -0x10, 0x9, -0x19, -0xc, 0x6, 0x18, 0x15, 0x6, -0x1, -0x22, 0x10, -0x14, -0x10, -0x2, -0x4, -0x3, -0x14, -0x8, 0xb, 0x7, -0x7, -0xa, -0x2, -0x1, 0xc, -0x13, -0xc, -0xc, 0x0, -0x6, 0x5, 0xe, -0x2, -0x8, -0xa, 0x1, 0x16, -0xc,
0x8, 0xa, 0x18, -0xf, 0x8, -0x7, 0xf, -0x14, -0xb, 0x21, 0x0, 0x19, 0xb, 0x2, -0x4, -0x19, 0x2, 0xa, -0x10, 0x0, 0x0, -0x2, 0x4, 0xc, -0x9, -0xd, -0xa, 0x9, 0x1, 0x20, -0x2, 0xd, -0x13, 0x13, 0x10, 0x9, -0xb, 0x0, -0x6, 0x6, 0x9, 0x15, -0x3, -0x6, -0x5, -0x9, 0x4, -0xa, -0x2, -0x9, -0x16, -0xb, -0xb, 0x10, 0x0, 0x0, -0x8, -0x4, 0x1, -0x1, -0x1, -0x4, -0x4, -0x3, -0x4, -0x7, -0x12, 0x1d, -0xd, 0x12, 0x7, -0x10, -0x10, -0x5, 0x0, -0xb, -0xd, -0xc, 0x9, -0x9, 0x9, -0x7, -0xb, 0x0, 0x0, 0x2c, -0x8, -0x9, -0x5, 0xf, 0x2, -0x8, -0x8, 0x6, 0x10, 0xb, -0x11, 0x14, 0x3, 0x12,
0x1e, 0x17, -0xf, 0x15, 0x4, -0x6, 0xe, -0x3, -0x7, 0x1, -0x9, -0x9, -0x4, 0x4, -0xa, -0xc, 0x3, 0x12, 0x0, -0x6, 0xe, -0xb, 0x9, -0x12, 0x2, 0x1d, -0x6, -0x9, 0x18, -0xa, 0x19, -0x9, 0xd, 0x14, -0x10, -0x18, 0x0, 0x12, 0x0, -0xb, 0x15, 0x1a, 0x16, 0x1c, -0x8, -0x18, 0x12, 0x0, 0x0, 0x2, 0x4, 0x16, 0x1e, 0x9, -0x11, 0x38, 0x28, -0x18, 0x6, -0x1f, 0x3, -0xa, 0x2c, -0x6, -0xd, 0x3, 0x2a, -0x6, 0x11, -0x1f, -0x45, 0x7, -0x9, 0x9, -0x14, 0x13, -0x1f, 0xe, 0x1e, 0x8, -0x5, -0x4, 0x0, 0x17, 0x14, 0x1, -0x4, -0x9, 0xb, -0x7, -0xf, -0x3, -0x1, 0x2, -0xa, -0x22, 0xb, 0xd, 0x16, 0x0,
